{
  "version": "1.0",
  "truncation": null,
  "padding": null,
  "added_tokens": [
    {
      "id": 0,
      "content": "<unk>",
      "single_word": false,
      "lstrip": false,
      "rstrip": false,
      "normalized": false,
      "special": true
    },
    {
      "id": 1,
      "content": "<s>",
      "single_word": false,
      "lstrip": false,
      "rstrip": false,
      "normalized": false,
      "special": true
    },
    {
      "id": 2,
      "content": "</s>",
      "single_word": false,
      "lstrip": false,
      "rstrip": false,
      "normalized": false,
      "special": true
    },
    {
      "id": 3,
      "content": "[INST]",
      "single_word": false,
      "lstrip": false,
      "rstrip": false,
      "normalized": false,
      "special": true
    },
    {
      "id": 4,
      "content": "[/INST]",
      "single_word": false,
      "lstrip": false,
      "rstrip": false,
      "normalized": false,
      "special": true
    },
    {
      "id": 5,
      "content": "[TOOL_CALLS]",
      "single_word": false,
      "lstrip": false,
      "rstrip": false,
      "normalized": false,
      "special": true
    },
    {
      "id": 6,
      "content": "[AVAILABLE_TOOLS]",
      "single_word": false,
      "lstrip": false,
      "rstrip": false,
      "normalized": false,
      "special": true
    },
    {
      "id": 7,
      "content": "[/AVAILABLE_TOOLS]",
      "single_word": false,
      "lstrip": false,
      "rstrip": false,
      "normalized": false,
      "special": true
    },
    {
      "id": 8,
      "content": "[TOOL_RESULTS]",
      "single_word": false,
      "lstrip": false,
      "rstrip": false,
      "normalized": false,
      "special": true
    },
    {
      "id": 9,
      "content": "[/TOOL_RESULTS]",
      "single_word": false,
      "lstrip": false,
      "rstrip": false,
      "normalized": false,
      "special": true
    },
    {
      "id": 10,
      "content": "[control_8]",
      "single_word": false,
      "lstrip": false,
      "rstrip": false,
      "normalized": false,
      "special": true
    },
    {
      "id": 11,
      "content": "[control_9]",
      "single_word": false,
      "lstrip": false,
      "rstrip": false,
      "normalized": false,
      "special": true
    },
    {
      "id": 12,
      "content": "[control_10]",
      "single_word": false,
      "lstrip": false,
      "rstrip": false,
      "normalized": false,
      "special": true
    },
    {
      "id": 13,
      "content": "[control_11]",
      "single_word": false,
      "lstrip": false,
      "rstrip": false,
      "normalized": false,
      "special": true
    },
    {
      "id": 14,
      "content": "[control_12]",
      "single_word": false,
      "lstrip": false,
      "rstrip": false,
      "normalized": false,
      "special": true
    },
    {
      "id": 15,
      "content": "[control_13]",
      "single_word": false,
      "lstrip": false,
      "rstrip": false,
      "normalized": false,
      "special": true
    },
    {
      "id": 16,
      "content": "[control_14]",
      "single_word": false,
      "lstrip": false,
      "rstrip": false,
      "normalized": false,
      "special": true
    },
    {
      "id": 17,
      "content": "[control_15]",
      "single_word": false,
      "lstrip": false,
      "rstrip": false,
      "normalized": false,
      "special": true
    },
    {
      "id": 18,
      "content": "[control_16]",
      "single_word": false,
      "lstrip": false,
      "rstrip": false,
      "normalized": false,
      "special": true
    },
    {
      "id": 19,
      "content": "[control_17]",
      "single_word": false,
      "lstrip": false,
      "rstrip": false,
      "normalized": false,
      "special": true
    },
    {
      "id": 20,
      "content": "[control_18]",
      "single_word": false,
      "lstrip": false,
      "rstrip": false,
      "normalized": false,
      "special": true
    },
    {
      "id": 21,
      "content": "[control_19]",
      "single_word": false,
      "lstrip": false,
      "rstrip": false,
      "normalized": false,
      "special": true
    },
    {
      "id": 22,
      "content": "[control_20]",
      "single_word": false,
      "lstrip": false,
      "rstrip": false,
      "normalized": false,
      "special": true
    },
    {
      "id": 23,
      "content": "[control_21]",
      "single_word": false,
      "lstrip": false,
      "rstrip": false,
      "normalized": false,
      "special": true
    },
    {
      "id": 24,
      "content": "[control_22]",
      "single_word": false,
      "lstrip": false,
      "rstrip": false,
      "normalized": false,
      "special": true
    },
    {
      "id": 25,
      "content": "[control_23]",
      "single_word": false,
      "lstrip": false,
      "rstrip": false,
      "normalized": false,
      "special": true
    },
    {
      "id": 26,
      "content": "[control_24]",
      "single_word": false,
      "lstrip": false,
      "rstrip": false,
      "normalized": false,
      "special": true
    },
    {
      "id": 27,
      "content": "[control_25]",
      "single_word": false,
      "lstrip": false,
      "rstrip": false,
      "normalized": false,
      "special": true
    },
    {
      "id": 28,
      "content": "[control_26]",
      "single_word": false,
      "lstrip": false,
      "rstrip": false,
      "normalized": false,
      "special": true
    },
    {
      "id": 29,
      "content": "[control_27]",
      "single_word": false,
      "lstrip": false,
      "rstrip": false,
      "normalized": false,
      "special": true
    },
    {
      "id": 30,
      "content": "[control_28]",
      "single_word": false,
      "lstrip": false,
      "rstrip": false,
      "normalized": false,
      "special": true
    },
    {
      "id": 31,
      "content": "[control_29]",
      "single_word": false,
      "lstrip": false,
      "rstrip": false,
      "normalized": false,
      "special": true
    },
    {
      "id": 32,
      "content": "[control_30]",
      "single_word": false,
      "lstrip": false,
      "rstrip": false,
      "normalized": false,
      "special": true
    },
    {
      "id": 33,
      "content": "[control_31]",
      "single_word": false,
      "lstrip": false,
      "rstrip": false,
      "normalized": false,
      "special": true
    },
    {
      "id": 34,
      "content": "[control_32]",
      "single_word": false,
      "lstrip": false,
      "rstrip": false,
      "normalized": false,
      "special": true
    },
    {
      "id": 35,
      "content": "[control_33]",
      "single_word": false,
      "lstrip": false,
      "rstrip": false,
      "normalized": false,
      "special": true
    },
    {
      "id": 36,
      "content": "[control_34]",
      "single_word": false,
      "lstrip": false,
      "rstrip": false,
      "normalized": false,
      "special": true
    },
    {
      "id": 37,
      "content": "[control_35]",
      "single_word": false,
      "lstrip": false,
      "rstrip": false,
      "normalized": false,
      "special": true
    },
    {
      "id": 38,
      "content": "[control_36]",
      "single_word": false,
      "lstrip": false,
      "rstrip": false,
      "normalized": false,
      "special": true
    },
    {
      "id": 39,
      "content": "[control_37]",
      "single_word": false,
      "lstrip": false,
      "rstrip": false,
      "normalized": false,
      "special": true
    },
    {
      "id": 40,
      "content": "[control_38]",
      "single_word": false,
      "lstrip": false,
      "rstrip": false,
      "normalized": false,
      "special": true
    },
    {
      "id": 41,
      "content": "[control_39]",
      "single_word": false,
      "lstrip": false,
      "rstrip": false,
      "normalized": false,
      "special": true
    },
    {
      "id": 42,
      "content": "[control_40]",
      "single_word": false,
      "lstrip": false,
      "rstrip": false,
      "normalized": false,
      "special": true
    },
    {
      "id": 43,
      "content": "[control_41]",
      "single_word": false,
      "lstrip": false,
      "rstrip": false,
      "normalized": false,
      "special": true
    },
    {
      "id": 44,
      "content": "[control_42]",
      "single_word": false,
      "lstrip": false,
      "rstrip": false,
      "normalized": false,
      "special": true
    },
    {
      "id": 45,
      "content": "[control_43]",
      "single_word": false,
      "lstrip": false,
      "rstrip": false,
      "normalized": false,
      "special": true
    },
    {
      "id": 46,
      "content": "[control_44]",
      "single_word": false,
      "lstrip": false,
      "rstrip": false,
      "normalized": false,
      "special": true
    },
    {
      "id": 47,
      "content": "[control_45]",
      "single_word": false,
      "lstrip": false,
      "rstrip": false,
      "normalized": false,
      "special": true
    },
    {
      "id": 48,
      "content": "[control_46]",
      "single_word": false,
      "lstrip": false,
      "rstrip": false,
      "normalized": false,
      "special": true
    },
    {
      "id": 49,
      "content": "[control_47]",
      "single_word": false,
      "lstrip": false,
      "rstrip": false,
      "normalized": false,
      "special": true
    },
    {
      "id": 50,
      "content": "[control_48]",
      "single_word": false,
      "lstrip": false,
      "rstrip": false,
      "normalized": false,
      "special": true
    },
    {
      "id": 51,
      "content": "[control_49]",
      "single_word": false,
      "lstrip": false,
      "rstrip": false,
      "normalized": false,
      "special": true
    },
    {
      "id": 52,
      "content": "[control_50]",
      "single_word": false,
      "lstrip": false,
      "rstrip": false,
      "normalized": false,
      "special": true
    },
    {
      "id": 53,
      "content": "[control_51]",
      "single_word": false,
      "lstrip": false,
      "rstrip": false,
      "normalized": false,
      "special": true
    },
    {
      "id": 54,
      "content": "[control_52]",
      "single_word": false,
      "lstrip": false,
      "rstrip": false,
      "normalized": false,
      "special": true
    },
    {
      "id": 55,
      "content": "[control_53]",
      "single_word": false,
      "lstrip": false,
      "rstrip": false,
      "normalized": false,
      "special": true
    },
    {
      "id": 56,
      "content": "[control_54]",
      "single_word": false,
      "lstrip": false,
      "rstrip": false,
      "normalized": false,
      "special": true
    },
    {
      "id": 57,
      "content": "[control_55]",
      "single_word": false,
      "lstrip": false,
      "rstrip": false,
      "normalized": false,
      "special": true
    },
    {
      "id": 58,
      "content": "[control_56]",
      "single_word": false,
      "lstrip": false,
      "rstrip": false,
      "normalized": false,
      "special": true
    },
    {
      "id": 59,
      "content": "[control_57]",
      "single_word": false,
      "lstrip": false,
      "rstrip": false,
      "normalized": false,
      "special": true
    },
    {
      "id": 60,
      "content": "[control_58]",
      "single_word": false,
      "lstrip": false,
      "rstrip": false,
      "normalized": false,
      "special": true
    },
    {
      "id": 61,
      "content": "[control_59]",
      "single_word": false,
      "lstrip": false,
      "rstrip": false,
      "normalized": false,
      "special": true
    },
    {
      "id": 62,
      "content": "[control_60]",
      "single_word": false,
      "lstrip": false,
      "rstrip": false,
      "normalized": false,
      "special": true
    },
    {
      "id": 63,
      "content": "[control_61]",
      "single_word": false,
      "lstrip": false,
      "rstrip": false,
      "normalized": false,
      "special": true
    },
    {
      "id": 64,
      "content": "[control_62]",
      "single_word": false,
      "lstrip": false,
      "rstrip": false,
      "normalized": false,
      "special": true
    },
    {
      "id": 65,
      "content": "[control_63]",
      "single_word": false,
      "lstrip": false,
      "rstrip": false,
      "normalized": false,
      "special": true
    },
    {
      "id": 66,
      "content": "[control_64]",
      "single_word": false,
      "lstrip": false,
      "rstrip": false,
      "normalized": false,
      "special": true
    },
    {
      "id": 67,
      "content": "[control_65]",
      "single_word": false,
      "lstrip": false,
      "rstrip": false,
      "normalized": false,
      "special": true
    },
    {
      "id": 68,
      "content": "[control_66]",
      "single_word": false,
      "lstrip": false,
      "rstrip": false,
      "normalized": false,
      "special": true
    },
    {
      "id": 69,
      "content": "[control_67]",
      "single_word": false,
      "lstrip": false,
      "rstrip": false,
      "normalized": false,
      "special": true
    },
    {
      "id": 70,
      "content": "[control_68]",
      "single_word": false,
      "lstrip": false,
      "rstrip": false,
      "normalized": false,
      "special": true
    },
    {
      "id": 71,
      "content": "[control_69]",
      "single_word": false,
      "lstrip": false,
      "rstrip": false,
      "normalized": false,
      "special": true
    },
    {
      "id": 72,
      "content": "[control_70]",
      "single_word": false,
      "lstrip": false,
      "rstrip": false,
      "normalized": false,
      "special": true
    },
    {
      "id": 73,
      "content": "[control_71]",
      "single_word": false,
      "lstrip": false,
      "rstrip": false,
      "normalized": false,
      "special": true
    },
    {
      "id": 74,
      "content": "[control_72]",
      "single_word": false,
      "lstrip": false,
      "rstrip": false,
      "normalized": false,
      "special": true
    },
    {
      "id": 75,
      "content": "[control_73]",
      "single_word": false,
      "lstrip": false,
      "rstrip": false,
      "normalized": false,
      "special": true
    },
    {
      "id": 76,
      "content": "[control_74]",
      "single_word": false,
      "lstrip": false,
      "rstrip": false,
      "normalized": false,
      "special": true
    },
    {
      "id": 77,
      "content": "[control_75]",
      "single_word": false,
      "lstrip": false,
      "rstrip": false,
      "normalized": false,
      "special": true
    },
    {
      "id": 78,
      "content": "[control_76]",
      "single_word": false,
      "lstrip": false,
      "rstrip": false,
      "normalized": false,
      "special": true
    },
    {
      "id": 79,
      "content": "[control_77]",
      "single_word": false,
      "lstrip": false,
      "rstrip": false,
      "normalized": false,
      "special": true
    },
    {
      "id": 80,
      "content": "[control_78]",
      "single_word": false,
      "lstrip": false,
      "rstrip": false,
      "normalized": false,
      "special": true
    },
    {
      "id": 81,
      "content": "[control_79]",
      "single_word": false,
      "lstrip": false,
      "rstrip": false,
      "normalized": false,
      "special": true
    },
    {
      "id": 82,
      "content": "[control_80]",
      "single_word": false,
      "lstrip": false,
      "rstrip": false,
      "normalized": false,
      "special": true
    },
    {
      "id": 83,
      "content": "[control_81]",
      "single_word": false,
      "lstrip": false,
      "rstrip": false,
      "normalized": false,
      "special": true
    },
    {
      "id": 84,
      "content": "[control_82]",
      "single_word": false,
      "lstrip": false,
      "rstrip": false,
      "normalized": false,
      "special": true
    },
    {
      "id": 85,
      "content": "[control_83]",
      "single_word": false,
      "lstrip": false,
      "rstrip": false,
      "normalized": false,
      "special": true
    },
    {
      "id": 86,
      "content": "[control_84]",
      "single_word": false,
      "lstrip": false,
      "rstrip": false,
      "normalized": false,
      "special": true
    },
    {
      "id": 87,
      "content": "[control_85]",
      "single_word": false,
      "lstrip": false,
      "rstrip": false,
      "normalized": false,
      "special": true
    },
    {
      "id": 88,
      "content": "[control_86]",
      "single_word": false,
      "lstrip": false,
      "rstrip": false,
      "normalized": false,
      "special": true
    },
    {
      "id": 89,
      "content": "[control_87]",
      "single_word": false,
      "lstrip": false,
      "rstrip": false,
      "normalized": false,
      "special": true
    },
    {
      "id": 90,
      "content": "[control_88]",
      "single_word": false,
      "lstrip": false,
      "rstrip": false,
      "normalized": false,
      "special": true
    },
    {
      "id": 91,
      "content": "[control_89]",
      "single_word": false,
      "lstrip": false,
      "rstrip": false,
      "normalized": false,
      "special": true
    },
    {
      "id": 92,
      "content": "[control_90]",
      "single_word": false,
      "lstrip": false,
      "rstrip": false,
      "normalized": false,
      "special": true
    },
    {
      "id": 93,
      "content": "[control_91]",
      "single_word": false,
      "lstrip": false,
      "rstrip": false,
      "normalized": false,
      "special": true
    },
    {
      "id": 94,
      "content": "[control_92]",
      "single_word": false,
      "lstrip": false,
      "rstrip": false,
      "normalized": false,
      "special": true
    },
    {
      "id": 95,
      "content": "[control_93]",
      "single_word": false,
      "lstrip": false,
      "rstrip": false,
      "normalized": false,
      "special": true
    },
    {
      "id": 96,
      "content": "[control_94]",
      "single_word": false,
      "lstrip": false,
      "rstrip": false,
      "normalized": false,
      "special": true
    },
    {
      "id": 97,
      "content": "[control_95]",
      "single_word": false,
      "lstrip": false,
      "rstrip": false,
      "normalized": false,
      "special": true
    },
    {
      "id": 98,
      "content": "[control_96]",
      "single_word": false,
      "lstrip": false,
      "rstrip": false,
      "normalized": false,
      "special": true
    },
    {
      "id": 99,
      "content": "[control_97]",
      "single_word": false,
      "lstrip": false,
      "rstrip": false,
      "normalized": false,
      "special": true
    },
    {
      "id": 100,
      "content": "[control_98]",
      "single_word": false,
      "lstrip": false,
      "rstrip": false,
      "normalized": false,
      "special": true
    },
    {
      "id": 101,
      "content": "[control_99]",
      "single_word": false,
      "lstrip": false,
      "rstrip": false,
      "normalized": false,
      "special": true
    },
    {
      "id": 102,
      "content": "[control_100]",
      "single_word": false,
      "lstrip": false,
      "rstrip": false,
      "normalized": false,
      "special": true
    },
    {
      "id": 103,
      "content": "[control_101]",
      "single_word": false,
      "lstrip": false,
      "rstrip": false,
      "normalized": false,
      "special": true
    },
    {
      "id": 104,
      "content": "[control_102]",
      "single_word": false,
      "lstrip": false,
      "rstrip": false,
      "normalized": false,
      "special": true
    },
    {
      "id": 105,
      "content": "[control_103]",
      "single_word": false,
      "lstrip": false,
      "rstrip": false,
      "normalized": false,
      "special": true
    },
    {
      "id": 106,
      "content": "[control_104]",
      "single_word": false,
      "lstrip": false,
      "rstrip": false,
      "normalized": false,
      "special": true
    },
    {
      "id": 107,
      "content": "[control_105]",
      "single_word": false,
      "lstrip": false,
      "rstrip": false,
      "normalized": false,
      "special": true
    },
    {
      "id": 108,
      "content": "[control_106]",
      "single_word": false,
      "lstrip": false,
      "rstrip": false,
      "normalized": false,
      "special": true
    },
    {
      "id": 109,
      "content": "[control_107]",
      "single_word": false,
      "lstrip": false,
      "rstrip": false,
      "normalized": false,
      "special": true
    },
    {
      "id": 110,
      "content": "[control_108]",
      "single_word": false,
      "lstrip": false,
      "rstrip": false,
      "normalized": false,
      "special": true
    },
    {
      "id": 111,
      "content": "[control_109]",
      "single_word": false,
      "lstrip": false,
      "rstrip": false,
      "normalized": false,
      "special": true
    },
    {
      "id": 112,
      "content": "[control_110]",
      "single_word": false,
      "lstrip": false,
      "rstrip": false,
      "normalized": false,
      "special": true
    },
    {
      "id": 113,
      "content": "[control_111]",
      "single_word": false,
      "lstrip": false,
      "rstrip": false,
      "normalized": false,
      "special": true
    },
    {
      "id": 114,
      "content": "[control_112]",
      "single_word": false,
      "lstrip": false,
      "rstrip": false,
      "normalized": false,
      "special": true
    },
    {
      "id": 115,
      "content": "[control_113]",
      "single_word": false,
      "lstrip": false,
      "rstrip": false,
      "normalized": false,
      "special": true
    },
    {
      "id": 116,
      "content": "[control_114]",
      "single_word": false,
      "lstrip": false,
      "rstrip": false,
      "normalized": false,
      "special": true
    },
    {
      "id": 117,
      "content": "[control_115]",
      "single_word": false,
      "lstrip": false,
      "rstrip": false,
      "normalized": false,
      "special": true
    },
    {
      "id": 118,
      "content": "[control_116]",
      "single_word": false,
      "lstrip": false,
      "rstrip": false,
      "normalized": false,
      "special": true
    },
    {
      "id": 119,
      "content": "[control_117]",
      "single_word": false,
      "lstrip": false,
      "rstrip": false,
      "normalized": false,
      "special": true
    },
    {
      "id": 120,
      "content": "[control_118]",
      "single_word": false,
      "lstrip": false,
      "rstrip": false,
      "normalized": false,
      "special": true
    },
    {
      "id": 121,
      "content": "[control_119]",
      "single_word": false,
      "lstrip": false,
      "rstrip": false,
      "normalized": false,
      "special": true
    },
    {
      "id": 122,
      "content": "[control_120]",
      "single_word": false,
      "lstrip": false,
      "rstrip": false,
      "normalized": false,
      "special": true
    },
    {
      "id": 123,
      "content": "[control_121]",
      "single_word": false,
      "lstrip": false,
      "rstrip": false,
      "normalized": false,
      "special": true
    },
    {
      "id": 124,
      "content": "[control_122]",
      "single_word": false,
      "lstrip": false,
      "rstrip": false,
      "normalized": false,
      "special": true
    },
    {
      "id": 125,
      "content": "[control_123]",
      "single_word": false,
      "lstrip": false,
      "rstrip": false,
      "normalized": false,
      "special": true
    },
    {
      "id": 126,
      "content": "[control_124]",
      "single_word": false,
      "lstrip": false,
      "rstrip": false,
      "normalized": false,
      "special": true
    },
    {
      "id": 127,
      "content": "[control_125]",
      "single_word": false,
      "lstrip": false,
      "rstrip": false,
      "normalized": false,
      "special": true
    },
    {
      "id": 128,
      "content": "[control_126]",
      "single_word": false,
      "lstrip": false,
      "rstrip": false,
      "normalized": false,
      "special": true
    },
    {
      "id": 129,
      "content": "[control_127]",
      "single_word": false,
      "lstrip": false,
      "rstrip": false,
      "normalized": false,
      "special": true
    },
    {
      "id": 130,
      "content": "[control_128]",
      "single_word": false,
      "lstrip": false,
      "rstrip": false,
      "normalized": false,
      "special": true
    },
    {
      "id": 131,
      "content": "[control_129]",
      "single_word": false,
      "lstrip": false,
      "rstrip": false,
      "normalized": false,
      "special": true
    },
    {
      "id": 132,
      "content": "[control_130]",
      "single_word": false,
      "lstrip": false,
      "rstrip": false,
      "normalized": false,
      "special": true
    },
    {
      "id": 133,
      "content": "[control_131]",
      "single_word": false,
      "lstrip": false,
      "rstrip": false,
      "normalized": false,
      "special": true
    },
    {
      "id": 134,
      "content": "[control_132]",
      "single_word": false,
      "lstrip": false,
      "rstrip": false,
      "normalized": false,
      "special": true
    },
    {
      "id": 135,
      "content": "[control_133]",
      "single_word": false,
      "lstrip": false,
      "rstrip": false,
      "normalized": false,
      "special": true
    },
    {
      "id": 136,
      "content": "[control_134]",
      "single_word": false,
      "lstrip": false,
      "rstrip": false,
      "normalized": false,
      "special": true
    },
    {
      "id": 137,
      "content": "[control_135]",
      "single_word": false,
      "lstrip": false,
      "rstrip": false,
      "normalized": false,
      "special": true
    },
    {
      "id": 138,
      "content": "[control_136]",
      "single_word": false,
      "lstrip": false,
      "rstrip": false,
      "normalized": false,
      "special": true
    },
    {
      "id": 139,
      "content": "[control_137]",
      "single_word": false,
      "lstrip": false,
      "rstrip": false,
      "normalized": false,
      "special": true
    },
    {
      "id": 140,
      "content": "[control_138]",
      "single_word": false,
      "lstrip": false,
      "rstrip": false,
      "normalized": false,
      "special": true
    },
    {
      "id": 141,
      "content": "[control_139]",
      "single_word": false,
      "lstrip": false,
      "rstrip": false,
      "normalized": false,
      "special": true
    },
    {
      "id": 142,
      "content": "[control_140]",
      "single_word": false,
      "lstrip": false,
      "rstrip": false,
      "normalized": false,
      "special": true
    },
    {
      "id": 143,
      "content": "[control_141]",
      "single_word": false,
      "lstrip": false,
      "rstrip": false,
      "normalized": false,
      "special": true
    },
    {
      "id": 144,
      "content": "[control_142]",
      "single_word": false,
      "lstrip": false,
      "rstrip": false,
      "normalized": false,
      "special": true
    },
    {
      "id": 145,
      "content": "[control_143]",
      "single_word": false,
      "lstrip": false,
      "rstrip": false,
      "normalized": false,
      "special": true
    },
    {
      "id": 146,
      "content": "[control_144]",
      "single_word": false,
      "lstrip": false,
      "rstrip": false,
      "normalized": false,
      "special": true
    },
    {
      "id": 147,
      "content": "[control_145]",
      "single_word": false,
      "lstrip": false,
      "rstrip": false,
      "normalized": false,
      "special": true
    },
    {
      "id": 148,
      "content": "[control_146]",
      "single_word": false,
      "lstrip": false,
      "rstrip": false,
      "normalized": false,
      "special": true
    },
    {
      "id": 149,
      "content": "[control_147]",
      "single_word": false,
      "lstrip": false,
      "rstrip": false,
      "normalized": false,
      "special": true
    },
    {
      "id": 150,
      "content": "[control_148]",
      "single_word": false,
      "lstrip": false,
      "rstrip": false,
      "normalized": false,
      "special": true
    },
    {
      "id": 151,
      "content": "[control_149]",
      "single_word": false,
      "lstrip": false,
      "rstrip": false,
      "normalized": false,
      "special": true
    },
    {
      "id": 152,
      "content": "[control_150]",
      "single_word": false,
      "lstrip": false,
      "rstrip": false,
      "normalized": false,
      "special": true
    },
    {
      "id": 153,
      "content": "[control_151]",
      "single_word": false,
      "lstrip": false,
      "rstrip": false,
      "normalized": false,
      "special": true
    },
    {
      "id": 154,
      "content": "[control_152]",
      "single_word": false,
      "lstrip": false,
      "rstrip": false,
      "normalized": false,
      "special": true
    },
    {
      "id": 155,
      "content": "[control_153]",
      "single_word": false,
      "lstrip": false,
      "rstrip": false,
      "normalized": false,
      "special": true
    },
    {
      "id": 156,
      "content": "[control_154]",
      "single_word": false,
      "lstrip": false,
      "rstrip": false,
      "normalized": false,
      "special": true
    },
    {
      "id": 157,
      "content": "[control_155]",
      "single_word": false,
      "lstrip": false,
      "rstrip": false,
      "normalized": false,
      "special": true
    },
    {
      "id": 158,
      "content": "[control_156]",
      "single_word": false,
      "lstrip": false,
      "rstrip": false,
      "normalized": false,
      "special": true
    },
    {
      "id": 159,
      "content": "[control_157]",
      "single_word": false,
      "lstrip": false,
      "rstrip": false,
      "normalized": false,
      "special": true
    },
    {
      "id": 160,
      "content": "[control_158]",
      "single_word": false,
      "lstrip": false,
      "rstrip": false,
      "normalized": false,
      "special": true
    },
    {
      "id": 161,
      "content": "[control_159]",
      "single_word": false,
      "lstrip": false,
      "rstrip": false,
      "normalized": false,
      "special": true
    },
    {
      "id": 162,
      "content": "[control_160]",
      "single_word": false,
      "lstrip": false,
      "rstrip": false,
      "normalized": false,
      "special": true
    },
    {
      "id": 163,
      "content": "[control_161]",
      "single_word": false,
      "lstrip": false,
      "rstrip": false,
      "normalized": false,
      "special": true
    },
    {
      "id": 164,
      "content": "[control_162]",
      "single_word": false,
      "lstrip": false,
      "rstrip": false,
      "normalized": false,
      "special": true
    },
    {
      "id": 165,
      "content": "[control_163]",
      "single_word": false,
      "lstrip": false,
      "rstrip": false,
      "normalized": false,
      "special": true
    },
    {
      "id": 166,
      "content": "[control_164]",
      "single_word": false,
      "lstrip": false,
      "rstrip": false,
      "normalized": false,
      "special": true
    },
    {
      "id": 167,
      "content": "[control_165]",
      "single_word": false,
      "lstrip": false,
      "rstrip": false,
      "normalized": false,
      "special": true
    },
    {
      "id": 168,
      "content": "[control_166]",
      "single_word": false,
      "lstrip": false,
      "rstrip": false,
      "normalized": false,
      "special": true
    },
    {
      "id": 169,
      "content": "[control_167]",
      "single_word": false,
      "lstrip": false,
      "rstrip": false,
      "normalized": false,
      "special": true
    },
    {
      "id": 170,
      "content": "[control_168]",
      "single_word": false,
      "lstrip": false,
      "rstrip": false,
      "normalized": false,
      "special": true
    },
    {
      "id": 171,
      "content": "[control_169]",
      "single_word": false,
      "lstrip": false,
      "rstrip": false,
      "normalized": false,
      "special": true
    },
    {
      "id": 172,
      "content": "[control_170]",
      "single_word": false,
      "lstrip": false,
      "rstrip": false,
      "normalized": false,
      "special": true
    },
    {
      "id": 173,
      "content": "[control_171]",
      "single_word": false,
      "lstrip": false,
      "rstrip": false,
      "normalized": false,
      "special": true
    },
    {
      "id": 174,
      "content": "[control_172]",
      "single_word": false,
      "lstrip": false,
      "rstrip": false,
      "normalized": false,
      "special": true
    },
    {
      "id": 175,
      "content": "[control_173]",
      "single_word": false,
      "lstrip": false,
      "rstrip": false,
      "normalized": false,
      "special": true
    },
    {
      "id": 176,
      "content": "[control_174]",
      "single_word": false,
      "lstrip": false,
      "rstrip": false,
      "normalized": false,
      "special": true
    },
    {
      "id": 177,
      "content": "[control_175]",
      "single_word": false,
      "lstrip": false,
      "rstrip": false,
      "normalized": false,
      "special": true
    },
    {
      "id": 178,
      "content": "[control_176]",
      "single_word": false,
      "lstrip": false,
      "rstrip": false,
      "normalized": false,
      "special": true
    },
    {
      "id": 179,
      "content": "[control_177]",
      "single_word": false,
      "lstrip": false,
      "rstrip": false,
      "normalized": false,
      "special": true
    },
    {
      "id": 180,
      "content": "[control_178]",
      "single_word": false,
      "lstrip": false,
      "rstrip": false,
      "normalized": false,
      "special": true
    },
    {
      "id": 181,
      "content": "[control_179]",
      "single_word": false,
      "lstrip": false,
      "rstrip": false,
      "normalized": false,
      "special": true
    },
    {
      "id": 182,
      "content": "[control_180]",
      "single_word": false,
      "lstrip": false,
      "rstrip": false,
      "normalized": false,
      "special": true
    },
    {
      "id": 183,
      "content": "[control_181]",
      "single_word": false,
      "lstrip": false,
      "rstrip": false,
      "normalized": false,
      "special": true
    },
    {
      "id": 184,
      "content": "[control_182]",
      "single_word": false,
      "lstrip": false,
      "rstrip": false,
      "normalized": false,
      "special": true
    },
    {
      "id": 185,
      "content": "[control_183]",
      "single_word": false,
      "lstrip": false,
      "rstrip": false,
      "normalized": false,
      "special": true
    },
    {
      "id": 186,
      "content": "[control_184]",
      "single_word": false,
      "lstrip": false,
      "rstrip": false,
      "normalized": false,
      "special": true
    },
    {
      "id": 187,
      "content": "[control_185]",
      "single_word": false,
      "lstrip": false,
      "rstrip": false,
      "normalized": false,
      "special": true
    },
    {
      "id": 188,
      "content": "[control_186]",
      "single_word": false,
      "lstrip": false,
      "rstrip": false,
      "normalized": false,
      "special": true
    },
    {
      "id": 189,
      "content": "[control_187]",
      "single_word": false,
      "lstrip": false,
      "rstrip": false,
      "normalized": false,
      "special": true
    },
    {
      "id": 190,
      "content": "[control_188]",
      "single_word": false,
      "lstrip": false,
      "rstrip": false,
      "normalized": false,
      "special": true
    },
    {
      "id": 191,
      "content": "[control_189]",
      "single_word": false,
      "lstrip": false,
      "rstrip": false,
      "normalized": false,
      "special": true
    },
    {
      "id": 192,
      "content": "[control_190]",
      "single_word": false,
      "lstrip": false,
      "rstrip": false,
      "normalized": false,
      "special": true
    },
    {
      "id": 193,
      "content": "[control_191]",
      "single_word": false,
      "lstrip": false,
      "rstrip": false,
      "normalized": false,
      "special": true
    },
    {
      "id": 194,
      "content": "[control_192]",
      "single_word": false,
      "lstrip": false,
      "rstrip": false,
      "normalized": false,
      "special": true
    },
    {
      "id": 195,
      "content": "[control_193]",
      "single_word": false,
      "lstrip": false,
      "rstrip": false,
      "normalized": false,
      "special": true
    },
    {
      "id": 196,
      "content": "[control_194]",
      "single_word": false,
      "lstrip": false,
      "rstrip": false,
      "normalized": false,
      "special": true
    },
    {
      "id": 197,
      "content": "[control_195]",
      "single_word": false,
      "lstrip": false,
      "rstrip": false,
      "normalized": false,
      "special": true
    },
    {
      "id": 198,
      "content": "[control_196]",
      "single_word": false,
      "lstrip": false,
      "rstrip": false,
      "normalized": false,
      "special": true
    },
    {
      "id": 199,
      "content": "[control_197]",
      "single_word": false,
      "lstrip": false,
      "rstrip": false,
      "normalized": false,
      "special": true
    },
    {
      "id": 200,
      "content": "[control_198]",
      "single_word": false,
      "lstrip": false,
      "rstrip": false,
      "normalized": false,
      "special": true
    },
    {
      "id": 201,
      "content": "[control_199]",
      "single_word": false,
      "lstrip": false,
      "rstrip": false,
      "normalized": false,
      "special": true
    },
    {
      "id": 202,
      "content": "[control_200]",
      "single_word": false,
      "lstrip": false,
      "rstrip": false,
      "normalized": false,
      "special": true
    },
    {
      "id": 203,
      "content": "[control_201]",
      "single_word": false,
      "lstrip": false,
      "rstrip": false,
      "normalized": false,
      "special": true
    },
    {
      "id": 204,
      "content": "[control_202]",
      "single_word": false,
      "lstrip": false,
      "rstrip": false,
      "normalized": false,
      "special": true
    },
    {
      "id": 205,
      "content": "[control_203]",
      "single_word": false,
      "lstrip": false,
      "rstrip": false,
      "normalized": false,
      "special": true
    },
    {
      "id": 206,
      "content": "[control_204]",
      "single_word": false,
      "lstrip": false,
      "rstrip": false,
      "normalized": false,
      "special": true
    },
    {
      "id": 207,
      "content": "[control_205]",
      "single_word": false,
      "lstrip": false,
      "rstrip": false,
      "normalized": false,
      "special": true
    },
    {
      "id": 208,
      "content": "[control_206]",
      "single_word": false,
      "lstrip": false,
      "rstrip": false,
      "normalized": false,
      "special": true
    },
    {
      "id": 209,
      "content": "[control_207]",
      "single_word": false,
      "lstrip": false,
      "rstrip": false,
      "normalized": false,
      "special": true
    },
    {
      "id": 210,
      "content": "[control_208]",
      "single_word": false,
      "lstrip": false,
      "rstrip": false,
      "normalized": false,
      "special": true
    },
    {
      "id": 211,
      "content": "[control_209]",
      "single_word": false,
      "lstrip": false,
      "rstrip": false,
      "normalized": false,
      "special": true
    },
    {
      "id": 212,
      "content": "[control_210]",
      "single_word": false,
      "lstrip": false,
      "rstrip": false,
      "normalized": false,
      "special": true
    },
    {
      "id": 213,
      "content": "[control_211]",
      "single_word": false,
      "lstrip": false,
      "rstrip": false,
      "normalized": false,
      "special": true
    },
    {
      "id": 214,
      "content": "[control_212]",
      "single_word": false,
      "lstrip": false,
      "rstrip": false,
      "normalized": false,
      "special": true
    },
    {
      "id": 215,
      "content": "[control_213]",
      "single_word": false,
      "lstrip": false,
      "rstrip": false,
      "normalized": false,
      "special": true
    },
    {
      "id": 216,
      "content": "[control_214]",
      "single_word": false,
      "lstrip": false,
      "rstrip": false,
      "normalized": false,
      "special": true
    },
    {
      "id": 217,
      "content": "[control_215]",
      "single_word": false,
      "lstrip": false,
      "rstrip": false,
      "normalized": false,
      "special": true
    },
    {
      "id": 218,
      "content": "[control_216]",
      "single_word": false,
      "lstrip": false,
      "rstrip": false,
      "normalized": false,
      "special": true
    },
    {
      "id": 219,
      "content": "[control_217]",
      "single_word": false,
      "lstrip": false,
      "rstrip": false,
      "normalized": false,
      "special": true
    },
    {
      "id": 220,
      "content": "[control_218]",
      "single_word": false,
      "lstrip": false,
      "rstrip": false,
      "normalized": false,
      "special": true
    },
    {
      "id": 221,
      "content": "[control_219]",
      "single_word": false,
      "lstrip": false,
      "rstrip": false,
      "normalized": false,
      "special": true
    },
    {
      "id": 222,
      "content": "[control_220]",
      "single_word": false,
      "lstrip": false,
      "rstrip": false,
      "normalized": false,
      "special": true
    },
    {
      "id": 223,
      "content": "[control_221]",
      "single_word": false,
      "lstrip": false,
      "rstrip": false,
      "normalized": false,
      "special": true
    },
    {
      "id": 224,
      "content": "[control_222]",
      "single_word": false,
      "lstrip": false,
      "rstrip": false,
      "normalized": false,
      "special": true
    },
    {
      "id": 225,
      "content": "[control_223]",
      "single_word": false,
      "lstrip": false,
      "rstrip": false,
      "normalized": false,
      "special": true
    },
    {
      "id": 226,
      "content": "[control_224]",
      "single_word": false,
      "lstrip": false,
      "rstrip": false,
      "normalized": false,
      "special": true
    },
    {
      "id": 227,
      "content": "[control_225]",
      "single_word": false,
      "lstrip": false,
      "rstrip": false,
      "normalized": false,
      "special": true
    },
    {
      "id": 228,
      "content": "[control_226]",
      "single_word": false,
      "lstrip": false,
      "rstrip": false,
      "normalized": false,
      "special": true
    },
    {
      "id": 229,
      "content": "[control_227]",
      "single_word": false,
      "lstrip": false,
      "rstrip": false,
      "normalized": false,
      "special": true
    },
    {
      "id": 230,
      "content": "[control_228]",
      "single_word": false,
      "lstrip": false,
      "rstrip": false,
      "normalized": false,
      "special": true
    },
    {
      "id": 231,
      "content": "[control_229]",
      "single_word": false,
      "lstrip": false,
      "rstrip": false,
      "normalized": false,
      "special": true
    },
    {
      "id": 232,
      "content": "[control_230]",
      "single_word": false,
      "lstrip": false,
      "rstrip": false,
      "normalized": false,
      "special": true
    },
    {
      "id": 233,
      "content": "[control_231]",
      "single_word": false,
      "lstrip": false,
      "rstrip": false,
      "normalized": false,
      "special": true
    },
    {
      "id": 234,
      "content": "[control_232]",
      "single_word": false,
      "lstrip": false,
      "rstrip": false,
      "normalized": false,
      "special": true
    },
    {
      "id": 235,
      "content": "[control_233]",
      "single_word": false,
      "lstrip": false,
      "rstrip": false,
      "normalized": false,
      "special": true
    },
    {
      "id": 236,
      "content": "[control_234]",
      "single_word": false,
      "lstrip": false,
      "rstrip": false,
      "normalized": false,
      "special": true
    },
    {
      "id": 237,
      "content": "[control_235]",
      "single_word": false,
      "lstrip": false,
      "rstrip": false,
      "normalized": false,
      "special": true
    },
    {
      "id": 238,
      "content": "[control_236]",
      "single_word": false,
      "lstrip": false,
      "rstrip": false,
      "normalized": false,
      "special": true
    },
    {
      "id": 239,
      "content": "[control_237]",
      "single_word": false,
      "lstrip": false,
      "rstrip": false,
      "normalized": false,
      "special": true
    },
    {
      "id": 240,
      "content": "[control_238]",
      "single_word": false,
      "lstrip": false,
      "rstrip": false,
      "normalized": false,
      "special": true
    },
    {
      "id": 241,
      "content": "[control_239]",
      "single_word": false,
      "lstrip": false,
      "rstrip": false,
      "normalized": false,
      "special": true
    },
    {
      "id": 242,
      "content": "[control_240]",
      "single_word": false,
      "lstrip": false,
      "rstrip": false,
      "normalized": false,
      "special": true
    },
    {
      "id": 243,
      "content": "[control_241]",
      "single_word": false,
      "lstrip": false,
      "rstrip": false,
      "normalized": false,
      "special": true
    },
    {
      "id": 244,
      "content": "[control_242]",
      "single_word": false,
      "lstrip": false,
      "rstrip": false,
      "normalized": false,
      "special": true
    },
    {
      "id": 245,
      "content": "[control_243]",
      "single_word": false,
      "lstrip": false,
      "rstrip": false,
      "normalized": false,
      "special": true
    },
    {
      "id": 246,
      "content": "[control_244]",
      "single_word": false,
      "lstrip": false,
      "rstrip": false,
      "normalized": false,
      "special": true
    },
    {
      "id": 247,
      "content": "[control_245]",
      "single_word": false,
      "lstrip": false,
      "rstrip": false,
      "normalized": false,
      "special": true
    },
    {
      "id": 248,
      "content": "[control_246]",
      "single_word": false,
      "lstrip": false,
      "rstrip": false,
      "normalized": false,
      "special": true
    },
    {
      "id": 249,
      "content": "[control_247]",
      "single_word": false,
      "lstrip": false,
      "rstrip": false,
      "normalized": false,
      "special": true
    },
    {
      "id": 250,
      "content": "[control_248]",
      "single_word": false,
      "lstrip": false,
      "rstrip": false,
      "normalized": false,
      "special": true
    },
    {
      "id": 251,
      "content": "[control_249]",
      "single_word": false,
      "lstrip": false,
      "rstrip": false,
      "normalized": false,
      "special": true
    },
    {
      "id": 252,
      "content": "[control_250]",
      "single_word": false,
      "lstrip": false,
      "rstrip": false,
      "normalized": false,
      "special": true
    },
    {
      "id": 253,
      "content": "[control_251]",
      "single_word": false,
      "lstrip": false,
      "rstrip": false,
      "normalized": false,
      "special": true
    },
    {
      "id": 254,
      "content": "[control_252]",
      "single_word": false,
      "lstrip": false,
      "rstrip": false,
      "normalized": false,
      "special": true
    },
    {
      "id": 255,
      "content": "[control_253]",
      "single_word": false,
      "lstrip": false,
      "rstrip": false,
      "normalized": false,
      "special": true
    },
    {
      "id": 256,
      "content": "[control_254]",
      "single_word": false,
      "lstrip": false,
      "rstrip": false,
      "normalized": false,
      "special": true
    },
    {
      "id": 257,
      "content": "[control_255]",
      "single_word": false,
      "lstrip": false,
      "rstrip": false,
      "normalized": false,
      "special": true
    },
    {
      "id": 258,
      "content": "[control_256]",
      "single_word": false,
      "lstrip": false,
      "rstrip": false,
      "normalized": false,
      "special": true
    },
    {
      "id": 259,
      "content": "[control_257]",
      "single_word": false,
      "lstrip": false,
      "rstrip": false,
      "normalized": false,
      "special": true
    },
    {
      "id": 260,
      "content": "[control_258]",
      "single_word": false,
      "lstrip": false,
      "rstrip": false,
      "normalized": false,
      "special": true
    },
    {
      "id": 261,
      "content": "[control_259]",
      "single_word": false,
      "lstrip": false,
      "rstrip": false,
      "normalized": false,
      "special": true
    },
    {
      "id": 262,
      "content": "[control_260]",
      "single_word": false,
      "lstrip": false,
      "rstrip": false,
      "normalized": false,
      "special": true
    },
    {
      "id": 263,
      "content": "[control_261]",
      "single_word": false,
      "lstrip": false,
      "rstrip": false,
      "normalized": false,
      "special": true
    },
    {
      "id": 264,
      "content": "[control_262]",
      "single_word": false,
      "lstrip": false,
      "rstrip": false,
      "normalized": false,
      "special": true
    },
    {
      "id": 265,
      "content": "[control_263]",
      "single_word": false,
      "lstrip": false,
      "rstrip": false,
      "normalized": false,
      "special": true
    },
    {
      "id": 266,
      "content": "[control_264]",
      "single_word": false,
      "lstrip": false,
      "rstrip": false,
      "normalized": false,
      "special": true
    },
    {
      "id": 267,
      "content": "[control_265]",
      "single_word": false,
      "lstrip": false,
      "rstrip": false,
      "normalized": false,
      "special": true
    },
    {
      "id": 268,
      "content": "[control_266]",
      "single_word": false,
      "lstrip": false,
      "rstrip": false,
      "normalized": false,
      "special": true
    },
    {
      "id": 269,
      "content": "[control_267]",
      "single_word": false,
      "lstrip": false,
      "rstrip": false,
      "normalized": false,
      "special": true
    },
    {
      "id": 270,
      "content": "[control_268]",
      "single_word": false,
      "lstrip": false,
      "rstrip": false,
      "normalized": false,
      "special": true
    },
    {
      "id": 271,
      "content": "[control_269]",
      "single_word": false,
      "lstrip": false,
      "rstrip": false,
      "normalized": false,
      "special": true
    },
    {
      "id": 272,
      "content": "[control_270]",
      "single_word": false,
      "lstrip": false,
      "rstrip": false,
      "normalized": false,
      "special": true
    },
    {
      "id": 273,
      "content": "[control_271]",
      "single_word": false,
      "lstrip": false,
      "rstrip": false,
      "normalized": false,
      "special": true
    },
    {
      "id": 274,
      "content": "[control_272]",
      "single_word": false,
      "lstrip": false,
      "rstrip": false,
      "normalized": false,
      "special": true
    },
    {
      "id": 275,
      "content": "[control_273]",
      "single_word": false,
      "lstrip": false,
      "rstrip": false,
      "normalized": false,
      "special": true
    },
    {
      "id": 276,
      "content": "[control_274]",
      "single_word": false,
      "lstrip": false,
      "rstrip": false,
      "normalized": false,
      "special": true
    },
    {
      "id": 277,
      "content": "[control_275]",
      "single_word": false,
      "lstrip": false,
      "rstrip": false,
      "normalized": false,
      "special": true
    },
    {
      "id": 278,
      "content": "[control_276]",
      "single_word": false,
      "lstrip": false,
      "rstrip": false,
      "normalized": false,
      "special": true
    },
    {
      "id": 279,
      "content": "[control_277]",
      "single_word": false,
      "lstrip": false,
      "rstrip": false,
      "normalized": false,
      "special": true
    },
    {
      "id": 280,
      "content": "[control_278]",
      "single_word": false,
      "lstrip": false,
      "rstrip": false,
      "normalized": false,
      "special": true
    },
    {
      "id": 281,
      "content": "[control_279]",
      "single_word": false,
      "lstrip": false,
      "rstrip": false,
      "normalized": false,
      "special": true
    },
    {
      "id": 282,
      "content": "[control_280]",
      "single_word": false,
      "lstrip": false,
      "rstrip": false,
      "normalized": false,
      "special": true
    },
    {
      "id": 283,
      "content": "[control_281]",
      "single_word": false,
      "lstrip": false,
      "rstrip": false,
      "normalized": false,
      "special": true
    },
    {
      "id": 284,
      "content": "[control_282]",
      "single_word": false,
      "lstrip": false,
      "rstrip": false,
      "normalized": false,
      "special": true
    },
    {
      "id": 285,
      "content": "[control_283]",
      "single_word": false,
      "lstrip": false,
      "rstrip": false,
      "normalized": false,
      "special": true
    },
    {
      "id": 286,
      "content": "[control_284]",
      "single_word": false,
      "lstrip": false,
      "rstrip": false,
      "normalized": false,
      "special": true
    },
    {
      "id": 287,
      "content": "[control_285]",
      "single_word": false,
      "lstrip": false,
      "rstrip": false,
      "normalized": false,
      "special": true
    },
    {
      "id": 288,
      "content": "[control_286]",
      "single_word": false,
      "lstrip": false,
      "rstrip": false,
      "normalized": false,
      "special": true
    },
    {
      "id": 289,
      "content": "[control_287]",
      "single_word": false,
      "lstrip": false,
      "rstrip": false,
      "normalized": false,
      "special": true
    },
    {
      "id": 290,
      "content": "[control_288]",
      "single_word": false,
      "lstrip": false,
      "rstrip": false,
      "normalized": false,
      "special": true
    },
    {
      "id": 291,
      "content": "[control_289]",
      "single_word": false,
      "lstrip": false,
      "rstrip": false,
      "normalized": false,
      "special": true
    },
    {
      "id": 292,
      "content": "[control_290]",
      "single_word": false,
      "lstrip": false,
      "rstrip": false,
      "normalized": false,
      "special": true
    },
    {
      "id": 293,
      "content": "[control_291]",
      "single_word": false,
      "lstrip": false,
      "rstrip": false,
      "normalized": false,
      "special": true
    },
    {
      "id": 294,
      "content": "[control_292]",
      "single_word": false,
      "lstrip": false,
      "rstrip": false,
      "normalized": false,
      "special": true
    },
    {
      "id": 295,
      "content": "[control_293]",
      "single_word": false,
      "lstrip": false,
      "rstrip": false,
      "normalized": false,
      "special": true
    },
    {
      "id": 296,
      "content": "[control_294]",
      "single_word": false,
      "lstrip": false,
      "rstrip": false,
      "normalized": false,
      "special": true
    },
    {
      "id": 297,
      "content": "[control_295]",
      "single_word": false,
      "lstrip": false,
      "rstrip": false,
      "normalized": false,
      "special": true
    },
    {
      "id": 298,
      "content": "[control_296]",
      "single_word": false,
      "lstrip": false,
      "rstrip": false,
      "normalized": false,
      "special": true
    },
    {
      "id": 299,
      "content": "[control_297]",
      "single_word": false,
      "lstrip": false,
      "rstrip": false,
      "normalized": false,
      "special": true
    },
    {
      "id": 300,
      "content": "[control_298]",
      "single_word": false,
      "lstrip": false,
      "rstrip": false,
      "normalized": false,
      "special": true
    },
    {
      "id": 301,
      "content": "[control_299]",
      "single_word": false,
      "lstrip": false,
      "rstrip": false,
      "normalized": false,
      "special": true
    },
    {
      "id": 302,
      "content": "[control_300]",
      "single_word": false,
      "lstrip": false,
      "rstrip": false,
      "normalized": false,
      "special": true
    },
    {
      "id": 303,
      "content": "[control_301]",
      "single_word": false,
      "lstrip": false,
      "rstrip": false,
      "normalized": false,
      "special": true
    },
    {
      "id": 304,
      "content": "[control_302]",
      "single_word": false,
      "lstrip": false,
      "rstrip": false,
      "normalized": false,
      "special": true
    },
    {
      "id": 305,
      "content": "[control_303]",
      "single_word": false,
      "lstrip": false,
      "rstrip": false,
      "normalized": false,
      "special": true
    },
    {
      "id": 306,
      "content": "[control_304]",
      "single_word": false,
      "lstrip": false,
      "rstrip": false,
      "normalized": false,
      "special": true
    },
    {
      "id": 307,
      "content": "[control_305]",
      "single_word": false,
      "lstrip": false,
      "rstrip": false,
      "normalized": false,
      "special": true
    },
    {
      "id": 308,
      "content": "[control_306]",
      "single_word": false,
      "lstrip": false,
      "rstrip": false,
      "normalized": false,
      "special": true
    },
    {
      "id": 309,
      "content": "[control_307]",
      "single_word": false,
      "lstrip": false,
      "rstrip": false,
      "normalized": false,
      "special": true
    },
    {
      "id": 310,
      "content": "[control_308]",
      "single_word": false,
      "lstrip": false,
      "rstrip": false,
      "normalized": false,
      "special": true
    },
    {
      "id": 311,
      "content": "[control_309]",
      "single_word": false,
      "lstrip": false,
      "rstrip": false,
      "normalized": false,
      "special": true
    },
    {
      "id": 312,
      "content": "[control_310]",
      "single_word": false,
      "lstrip": false,
      "rstrip": false,
      "normalized": false,
      "special": true
    },
    {
      "id": 313,
      "content": "[control_311]",
      "single_word": false,
      "lstrip": false,
      "rstrip": false,
      "normalized": false,
      "special": true
    },
    {
      "id": 314,
      "content": "[control_312]",
      "single_word": false,
      "lstrip": false,
      "rstrip": false,
      "normalized": false,
      "special": true
    },
    {
      "id": 315,
      "content": "[control_313]",
      "single_word": false,
      "lstrip": false,
      "rstrip": false,
      "normalized": false,
      "special": true
    },
    {
      "id": 316,
      "content": "[control_314]",
      "single_word": false,
      "lstrip": false,
      "rstrip": false,
      "normalized": false,
      "special": true
    },
    {
      "id": 317,
      "content": "[control_315]",
      "single_word": false,
      "lstrip": false,
      "rstrip": false,
      "normalized": false,
      "special": true
    },
    {
      "id": 318,
      "content": "[control_316]",
      "single_word": false,
      "lstrip": false,
      "rstrip": false,
      "normalized": false,
      "special": true
    },
    {
      "id": 319,
      "content": "[control_317]",
      "single_word": false,
      "lstrip": false,
      "rstrip": false,
      "normalized": false,
      "special": true
    },
    {
      "id": 320,
      "content": "[control_318]",
      "single_word": false,
      "lstrip": false,
      "rstrip": false,
      "normalized": false,
      "special": true
    },
    {
      "id": 321,
      "content": "[control_319]",
      "single_word": false,
      "lstrip": false,
      "rstrip": false,
      "normalized": false,
      "special": true
    },
    {
      "id": 322,
      "content": "[control_320]",
      "single_word": false,
      "lstrip": false,
      "rstrip": false,
      "normalized": false,
      "special": true
    },
    {
      "id": 323,
      "content": "[control_321]",
      "single_word": false,
      "lstrip": false,
      "rstrip": false,
      "normalized": false,
      "special": true
    },
    {
      "id": 324,
      "content": "[control_322]",
      "single_word": false,
      "lstrip": false,
      "rstrip": false,
      "normalized": false,
      "special": true
    },
    {
      "id": 325,
      "content": "[control_323]",
      "single_word": false,
      "lstrip": false,
      "rstrip": false,
      "normalized": false,
      "special": true
    },
    {
      "id": 326,
      "content": "[control_324]",
      "single_word": false,
      "lstrip": false,
      "rstrip": false,
      "normalized": false,
      "special": true
    },
    {
      "id": 327,
      "content": "[control_325]",
      "single_word": false,
      "lstrip": false,
      "rstrip": false,
      "normalized": false,
      "special": true
    },
    {
      "id": 328,
      "content": "[control_326]",
      "single_word": false,
      "lstrip": false,
      "rstrip": false,
      "normalized": false,
      "special": true
    },
    {
      "id": 329,
      "content": "[control_327]",
      "single_word": false,
      "lstrip": false,
      "rstrip": false,
      "normalized": false,
      "special": true
    },
    {
      "id": 330,
      "content": "[control_328]",
      "single_word": false,
      "lstrip": false,
      "rstrip": false,
      "normalized": false,
      "special": true
    },
    {
      "id": 331,
      "content": "[control_329]",
      "single_word": false,
      "lstrip": false,
      "rstrip": false,
      "normalized": false,
      "special": true
    },
    {
      "id": 332,
      "content": "[control_330]",
      "single_word": false,
      "lstrip": false,
      "rstrip": false,
      "normalized": false,
      "special": true
    },
    {
      "id": 333,
      "content": "[control_331]",
      "single_word": false,
      "lstrip": false,
      "rstrip": false,
      "normalized": false,
      "special": true
    },
    {
      "id": 334,
      "content": "[control_332]",
      "single_word": false,
      "lstrip": false,
      "rstrip": false,
      "normalized": false,
      "special": true
    },
    {
      "id": 335,
      "content": "[control_333]",
      "single_word": false,
      "lstrip": false,
      "rstrip": false,
      "normalized": false,
      "special": true
    },
    {
      "id": 336,
      "content": "[control_334]",
      "single_word": false,
      "lstrip": false,
      "rstrip": false,
      "normalized": false,
      "special": true
    },
    {
      "id": 337,
      "content": "[control_335]",
      "single_word": false,
      "lstrip": false,
      "rstrip": false,
      "normalized": false,
      "special": true
    },
    {
      "id": 338,
      "content": "[control_336]",
      "single_word": false,
      "lstrip": false,
      "rstrip": false,
      "normalized": false,
      "special": true
    },
    {
      "id": 339,
      "content": "[control_337]",
      "single_word": false,
      "lstrip": false,
      "rstrip": false,
      "normalized": false,
      "special": true
    },
    {
      "id": 340,
      "content": "[control_338]",
      "single_word": false,
      "lstrip": false,
      "rstrip": false,
      "normalized": false,
      "special": true
    },
    {
      "id": 341,
      "content": "[control_339]",
      "single_word": false,
      "lstrip": false,
      "rstrip": false,
      "normalized": false,
      "special": true
    },
    {
      "id": 342,
      "content": "[control_340]",
      "single_word": false,
      "lstrip": false,
      "rstrip": false,
      "normalized": false,
      "special": true
    },
    {
      "id": 343,
      "content": "[control_341]",
      "single_word": false,
      "lstrip": false,
      "rstrip": false,
      "normalized": false,
      "special": true
    },
    {
      "id": 344,
      "content": "[control_342]",
      "single_word": false,
      "lstrip": false,
      "rstrip": false,
      "normalized": false,
      "special": true
    },
    {
      "id": 345,
      "content": "[control_343]",
      "single_word": false,
      "lstrip": false,
      "rstrip": false,
      "normalized": false,
      "special": true
    },
    {
      "id": 346,
      "content": "[control_344]",
      "single_word": false,
      "lstrip": false,
      "rstrip": false,
      "normalized": false,
      "special": true
    },
    {
      "id": 347,
      "content": "[control_345]",
      "single_word": false,
      "lstrip": false,
      "rstrip": false,
      "normalized": false,
      "special": true
    },
    {
      "id": 348,
      "content": "[control_346]",
      "single_word": false,
      "lstrip": false,
      "rstrip": false,
      "normalized": false,
      "special": true
    },
    {
      "id": 349,
      "content": "[control_347]",
      "single_word": false,
      "lstrip": false,
      "rstrip": false,
      "normalized": false,
      "special": true
    },
    {
      "id": 350,
      "content": "[control_348]",
      "single_word": false,
      "lstrip": false,
      "rstrip": false,
      "normalized": false,
      "special": true
    },
    {
      "id": 351,
      "content": "[control_349]",
      "single_word": false,
      "lstrip": false,
      "rstrip": false,
      "normalized": false,
      "special": true
    },
    {
      "id": 352,
      "content": "[control_350]",
      "single_word": false,
      "lstrip": false,
      "rstrip": false,
      "normalized": false,
      "special": true
    },
    {
      "id": 353,
      "content": "[control_351]",
      "single_word": false,
      "lstrip": false,
      "rstrip": false,
      "normalized": false,
      "special": true
    },
    {
      "id": 354,
      "content": "[control_352]",
      "single_word": false,
      "lstrip": false,
      "rstrip": false,
      "normalized": false,
      "special": true
    },
    {
      "id": 355,
      "content": "[control_353]",
      "single_word": false,
      "lstrip": false,
      "rstrip": false,
      "normalized": false,
      "special": true
    },
    {
      "id": 356,
      "content": "[control_354]",
      "single_word": false,
      "lstrip": false,
      "rstrip": false,
      "normalized": false,
      "special": true
    },
    {
      "id": 357,
      "content": "[control_355]",
      "single_word": false,
      "lstrip": false,
      "rstrip": false,
      "normalized": false,
      "special": true
    },
    {
      "id": 358,
      "content": "[control_356]",
      "single_word": false,
      "lstrip": false,
      "rstrip": false,
      "normalized": false,
      "special": true
    },
    {
      "id": 359,
      "content": "[control_357]",
      "single_word": false,
      "lstrip": false,
      "rstrip": false,
      "normalized": false,
      "special": true
    },
    {
      "id": 360,
      "content": "[control_358]",
      "single_word": false,
      "lstrip": false,
      "rstrip": false,
      "normalized": false,
      "special": true
    },
    {
      "id": 361,
      "content": "[control_359]",
      "single_word": false,
      "lstrip": false,
      "rstrip": false,
      "normalized": false,
      "special": true
    },
    {
      "id": 362,
      "content": "[control_360]",
      "single_word": false,
      "lstrip": false,
      "rstrip": false,
      "normalized": false,
      "special": true
    },
    {
      "id": 363,
      "content": "[control_361]",
      "single_word": false,
      "lstrip": false,
      "rstrip": false,
      "normalized": false,
      "special": true
    },
    {
      "id": 364,
      "content": "[control_362]",
      "single_word": false,
      "lstrip": false,
      "rstrip": false,
      "normalized": false,
      "special": true
    },
    {
      "id": 365,
      "content": "[control_363]",
      "single_word": false,
      "lstrip": false,
      "rstrip": false,
      "normalized": false,
      "special": true
    },
    {
      "id": 366,
      "content": "[control_364]",
      "single_word": false,
      "lstrip": false,
      "rstrip": false,
      "normalized": false,
      "special": true
    },
    {
      "id": 367,
      "content": "[control_365]",
      "single_word": false,
      "lstrip": false,
      "rstrip": false,
      "normalized": false,
      "special": true
    },
    {
      "id": 368,
      "content": "[control_366]",
      "single_word": false,
      "lstrip": false,
      "rstrip": false,
      "normalized": false,
      "special": true
    },
    {
      "id": 369,
      "content": "[control_367]",
      "single_word": false,
      "lstrip": false,
      "rstrip": false,
      "normalized": false,
      "special": true
    },
    {
      "id": 370,
      "content": "[control_368]",
      "single_word": false,
      "lstrip": false,
      "rstrip": false,
      "normalized": false,
      "special": true
    },
    {
      "id": 371,
      "content": "[control_369]",
      "single_word": false,
      "lstrip": false,
      "rstrip": false,
      "normalized": false,
      "special": true
    },
    {
      "id": 372,
      "content": "[control_370]",
      "single_word": false,
      "lstrip": false,
      "rstrip": false,
      "normalized": false,
      "special": true
    },
    {
      "id": 373,
      "content": "[control_371]",
      "single_word": false,
      "lstrip": false,
      "rstrip": false,
      "normalized": false,
      "special": true
    },
    {
      "id": 374,
      "content": "[control_372]",
      "single_word": false,
      "lstrip": false,
      "rstrip": false,
      "normalized": false,
      "special": true
    },
    {
      "id": 375,
      "content": "[control_373]",
      "single_word": false,
      "lstrip": false,
      "rstrip": false,
      "normalized": false,
      "special": true
    },
    {
      "id": 376,
      "content": "[control_374]",
      "single_word": false,
      "lstrip": false,
      "rstrip": false,
      "normalized": false,
      "special": true
    },
    {
      "id": 377,
      "content": "[control_375]",
      "single_word": false,
      "lstrip": false,
      "rstrip": false,
      "normalized": false,
      "special": true
    },
    {
      "id": 378,
      "content": "[control_376]",
      "single_word": false,
      "lstrip": false,
      "rstrip": false,
      "normalized": false,
      "special": true
    },
    {
      "id": 379,
      "content": "[control_377]",
      "single_word": false,
      "lstrip": false,
      "rstrip": false,
      "normalized": false,
      "special": true
    },
    {
      "id": 380,
      "content": "[control_378]",
      "single_word": false,
      "lstrip": false,
      "rstrip": false,
      "normalized": false,
      "special": true
    },
    {
      "id": 381,
      "content": "[control_379]",
      "single_word": false,
      "lstrip": false,
      "rstrip": false,
      "normalized": false,
      "special": true
    },
    {
      "id": 382,
      "content": "[control_380]",
      "single_word": false,
      "lstrip": false,
      "rstrip": false,
      "normalized": false,
      "special": true
    },
    {
      "id": 383,
      "content": "[control_381]",
      "single_word": false,
      "lstrip": false,
      "rstrip": false,
      "normalized": false,
      "special": true
    },
    {
      "id": 384,
      "content": "[control_382]",
      "single_word": false,
      "lstrip": false,
      "rstrip": false,
      "normalized": false,
      "special": true
    },
    {
      "id": 385,
      "content": "[control_383]",
      "single_word": false,
      "lstrip": false,
      "rstrip": false,
      "normalized": false,
      "special": true
    },
    {
      "id": 386,
      "content": "[control_384]",
      "single_word": false,
      "lstrip": false,
      "rstrip": false,
      "normalized": false,
      "special": true
    },
    {
      "id": 387,
      "content": "[control_385]",
      "single_word": false,
      "lstrip": false,
      "rstrip": false,
      "normalized": false,
      "special": true
    },
    {
      "id": 388,
      "content": "[control_386]",
      "single_word": false,
      "lstrip": false,
      "rstrip": false,
      "normalized": false,
      "special": true
    },
    {
      "id": 389,
      "content": "[control_387]",
      "single_word": false,
      "lstrip": false,
      "rstrip": false,
      "normalized": false,
      "special": true
    },
    {
      "id": 390,
      "content": "[control_388]",
      "single_word": false,
      "lstrip": false,
      "rstrip": false,
      "normalized": false,
      "special": true
    },
    {
      "id": 391,
      "content": "[control_389]",
      "single_word": false,
      "lstrip": false,
      "rstrip": false,
      "normalized": false,
      "special": true
    },
    {
      "id": 392,
      "content": "[control_390]",
      "single_word": false,
      "lstrip": false,
      "rstrip": false,
      "normalized": false,
      "special": true
    },
    {
      "id": 393,
      "content": "[control_391]",
      "single_word": false,
      "lstrip": false,
      "rstrip": false,
      "normalized": false,
      "special": true
    },
    {
      "id": 394,
      "content": "[control_392]",
      "single_word": false,
      "lstrip": false,
      "rstrip": false,
      "normalized": false,
      "special": true
    },
    {
      "id": 395,
      "content": "[control_393]",
      "single_word": false,
      "lstrip": false,
      "rstrip": false,
      "normalized": false,
      "special": true
    },
    {
      "id": 396,
      "content": "[control_394]",
      "single_word": false,
      "lstrip": false,
      "rstrip": false,
      "normalized": false,
      "special": true
    },
    {
      "id": 397,
      "content": "[control_395]",
      "single_word": false,
      "lstrip": false,
      "rstrip": false,
      "normalized": false,
      "special": true
    },
    {
      "id": 398,
      "content": "[control_396]",
      "single_word": false,
      "lstrip": false,
      "rstrip": false,
      "normalized": false,
      "special": true
    },
    {
      "id": 399,
      "content": "[control_397]",
      "single_word": false,
      "lstrip": false,
      "rstrip": false,
      "normalized": false,
      "special": true
    },
    {
      "id": 400,
      "content": "[control_398]",
      "single_word": false,
      "lstrip": false,
      "rstrip": false,
      "normalized": false,
      "special": true
    },
    {
      "id": 401,
      "content": "[control_399]",
      "single_word": false,
      "lstrip": false,
      "rstrip": false,
      "normalized": false,
      "special": true
    },
    {
      "id": 402,
      "content": "[control_400]",
      "single_word": false,
      "lstrip": false,
      "rstrip": false,
      "normalized": false,
      "special": true
    },
    {
      "id": 403,
      "content": "[control_401]",
      "single_word": false,
      "lstrip": false,
      "rstrip": false,
      "normalized": false,
      "special": true
    },
    {
      "id": 404,
      "content": "[control_402]",
      "single_word": false,
      "lstrip": false,
      "rstrip": false,
      "normalized": false,
      "special": true
    },
    {
      "id": 405,
      "content": "[control_403]",
      "single_word": false,
      "lstrip": false,
      "rstrip": false,
      "normalized": false,
      "special": true
    },
    {
      "id": 406,
      "content": "[control_404]",
      "single_word": false,
      "lstrip": false,
      "rstrip": false,
      "normalized": false,
      "special": true
    },
    {
      "id": 407,
      "content": "[control_405]",
      "single_word": false,
      "lstrip": false,
      "rstrip": false,
      "normalized": false,
      "special": true
    },
    {
      "id": 408,
      "content": "[control_406]",
      "single_word": false,
      "lstrip": false,
      "rstrip": false,
      "normalized": false,
      "special": true
    },
    {
      "id": 409,
      "content": "[control_407]",
      "single_word": false,
      "lstrip": false,
      "rstrip": false,
      "normalized": false,
      "special": true
    },
    {
      "id": 410,
      "content": "[control_408]",
      "single_word": false,
      "lstrip": false,
      "rstrip": false,
      "normalized": false,
      "special": true
    },
    {
      "id": 411,
      "content": "[control_409]",
      "single_word": false,
      "lstrip": false,
      "rstrip": false,
      "normalized": false,
      "special": true
    },
    {
      "id": 412,
      "content": "[control_410]",
      "single_word": false,
      "lstrip": false,
      "rstrip": false,
      "normalized": false,
      "special": true
    },
    {
      "id": 413,
      "content": "[control_411]",
      "single_word": false,
      "lstrip": false,
      "rstrip": false,
      "normalized": false,
      "special": true
    },
    {
      "id": 414,
      "content": "[control_412]",
      "single_word": false,
      "lstrip": false,
      "rstrip": false,
      "normalized": false,
      "special": true
    },
    {
      "id": 415,
      "content": "[control_413]",
      "single_word": false,
      "lstrip": false,
      "rstrip": false,
      "normalized": false,
      "special": true
    },
    {
      "id": 416,
      "content": "[control_414]",
      "single_word": false,
      "lstrip": false,
      "rstrip": false,
      "normalized": false,
      "special": true
    },
    {
      "id": 417,
      "content": "[control_415]",
      "single_word": false,
      "lstrip": false,
      "rstrip": false,
      "normalized": false,
      "special": true
    },
    {
      "id": 418,
      "content": "[control_416]",
      "single_word": false,
      "lstrip": false,
      "rstrip": false,
      "normalized": false,
      "special": true
    },
    {
      "id": 419,
      "content": "[control_417]",
      "single_word": false,
      "lstrip": false,
      "rstrip": false,
      "normalized": false,
      "special": true
    },
    {
      "id": 420,
      "content": "[control_418]",
      "single_word": false,
      "lstrip": false,
      "rstrip": false,
      "normalized": false,
      "special": true
    },
    {
      "id": 421,
      "content": "[control_419]",
      "single_word": false,
      "lstrip": false,
      "rstrip": false,
      "normalized": false,
      "special": true
    },
    {
      "id": 422,
      "content": "[control_420]",
      "single_word": false,
      "lstrip": false,
      "rstrip": false,
      "normalized": false,
      "special": true
    },
    {
      "id": 423,
      "content": "[control_421]",
      "single_word": false,
      "lstrip": false,
      "rstrip": false,
      "normalized": false,
      "special": true
    },
    {
      "id": 424,
      "content": "[control_422]",
      "single_word": false,
      "lstrip": false,
      "rstrip": false,
      "normalized": false,
      "special": true
    },
    {
      "id": 425,
      "content": "[control_423]",
      "single_word": false,
      "lstrip": false,
      "rstrip": false,
      "normalized": false,
      "special": true
    },
    {
      "id": 426,
      "content": "[control_424]",
      "single_word": false,
      "lstrip": false,
      "rstrip": false,
      "normalized": false,
      "special": true
    },
    {
      "id": 427,
      "content": "[control_425]",
      "single_word": false,
      "lstrip": false,
      "rstrip": false,
      "normalized": false,
      "special": true
    },
    {
      "id": 428,
      "content": "[control_426]",
      "single_word": false,
      "lstrip": false,
      "rstrip": false,
      "normalized": false,
      "special": true
    },
    {
      "id": 429,
      "content": "[control_427]",
      "single_word": false,
      "lstrip": false,
      "rstrip": false,
      "normalized": false,
      "special": true
    },
    {
      "id": 430,
      "content": "[control_428]",
      "single_word": false,
      "lstrip": false,
      "rstrip": false,
      "normalized": false,
      "special": true
    },
    {
      "id": 431,
      "content": "[control_429]",
      "single_word": false,
      "lstrip": false,
      "rstrip": false,
      "normalized": false,
      "special": true
    },
    {
      "id": 432,
      "content": "[control_430]",
      "single_word": false,
      "lstrip": false,
      "rstrip": false,
      "normalized": false,
      "special": true
    },
    {
      "id": 433,
      "content": "[control_431]",
      "single_word": false,
      "lstrip": false,
      "rstrip": false,
      "normalized": false,
      "special": true
    },
    {
      "id": 434,
      "content": "[control_432]",
      "single_word": false,
      "lstrip": false,
      "rstrip": false,
      "normalized": false,
      "special": true
    },
    {
      "id": 435,
      "content": "[control_433]",
      "single_word": false,
      "lstrip": false,
      "rstrip": false,
      "normalized": false,
      "special": true
    },
    {
      "id": 436,
      "content": "[control_434]",
      "single_word": false,
      "lstrip": false,
      "rstrip": false,
      "normalized": false,
      "special": true
    },
    {
      "id": 437,
      "content": "[control_435]",
      "single_word": false,
      "lstrip": false,
      "rstrip": false,
      "normalized": false,
      "special": true
    },
    {
      "id": 438,
      "content": "[control_436]",
      "single_word": false,
      "lstrip": false,
      "rstrip": false,
      "normalized": false,
      "special": true
    },
    {
      "id": 439,
      "content": "[control_437]",
      "single_word": false,
      "lstrip": false,
      "rstrip": false,
      "normalized": false,
      "special": true
    },
    {
      "id": 440,
      "content": "[control_438]",
      "single_word": false,
      "lstrip": false,
      "rstrip": false,
      "normalized": false,
      "special": true
    },
    {
      "id": 441,
      "content": "[control_439]",
      "single_word": false,
      "lstrip": false,
      "rstrip": false,
      "normalized": false,
      "special": true
    },
    {
      "id": 442,
      "content": "[control_440]",
      "single_word": false,
      "lstrip": false,
      "rstrip": false,
      "normalized": false,
      "special": true
    },
    {
      "id": 443,
      "content": "[control_441]",
      "single_word": false,
      "lstrip": false,
      "rstrip": false,
      "normalized": false,
      "special": true
    },
    {
      "id": 444,
      "content": "[control_442]",
      "single_word": false,
      "lstrip": false,
      "rstrip": false,
      "normalized": false,
      "special": true
    },
    {
      "id": 445,
      "content": "[control_443]",
      "single_word": false,
      "lstrip": false,
      "rstrip": false,
      "normalized": false,
      "special": true
    },
    {
      "id": 446,
      "content": "[control_444]",
      "single_word": false,
      "lstrip": false,
      "rstrip": false,
      "normalized": false,
      "special": true
    },
    {
      "id": 447,
      "content": "[control_445]",
      "single_word": false,
      "lstrip": false,
      "rstrip": false,
      "normalized": false,
      "special": true
    },
    {
      "id": 448,
      "content": "[control_446]",
      "single_word": false,
      "lstrip": false,
      "rstrip": false,
      "normalized": false,
      "special": true
    },
    {
      "id": 449,
      "content": "[control_447]",
      "single_word": false,
      "lstrip": false,
      "rstrip": false,
      "normalized": false,
      "special": true
    },
    {
      "id": 450,
      "content": "[control_448]",
      "single_word": false,
      "lstrip": false,
      "rstrip": false,
      "normalized": false,
      "special": true
    },
    {
      "id": 451,
      "content": "[control_449]",
      "single_word": false,
      "lstrip": false,
      "rstrip": false,
      "normalized": false,
      "special": true
    },
    {
      "id": 452,
      "content": "[control_450]",
      "single_word": false,
      "lstrip": false,
      "rstrip": false,
      "normalized": false,
      "special": true
    },
    {
      "id": 453,
      "content": "[control_451]",
      "single_word": false,
      "lstrip": false,
      "rstrip": false,
      "normalized": false,
      "special": true
    },
    {
      "id": 454,
      "content": "[control_452]",
      "single_word": false,
      "lstrip": false,
      "rstrip": false,
      "normalized": false,
      "special": true
    },
    {
      "id": 455,
      "content": "[control_453]",
      "single_word": false,
      "lstrip": false,
      "rstrip": false,
      "normalized": false,
      "special": true
    },
    {
      "id": 456,
      "content": "[control_454]",
      "single_word": false,
      "lstrip": false,
      "rstrip": false,
      "normalized": false,
      "special": true
    },
    {
      "id": 457,
      "content": "[control_455]",
      "single_word": false,
      "lstrip": false,
      "rstrip": false,
      "normalized": false,
      "special": true
    },
    {
      "id": 458,
      "content": "[control_456]",
      "single_word": false,
      "lstrip": false,
      "rstrip": false,
      "normalized": false,
      "special": true
    },
    {
      "id": 459,
      "content": "[control_457]",
      "single_word": false,
      "lstrip": false,
      "rstrip": false,
      "normalized": false,
      "special": true
    },
    {
      "id": 460,
      "content": "[control_458]",
      "single_word": false,
      "lstrip": false,
      "rstrip": false,
      "normalized": false,
      "special": true
    },
    {
      "id": 461,
      "content": "[control_459]",
      "single_word": false,
      "lstrip": false,
      "rstrip": false,
      "normalized": false,
      "special": true
    },
    {
      "id": 462,
      "content": "[control_460]",
      "single_word": false,
      "lstrip": false,
      "rstrip": false,
      "normalized": false,
      "special": true
    },
    {
      "id": 463,
      "content": "[control_461]",
      "single_word": false,
      "lstrip": false,
      "rstrip": false,
      "normalized": false,
      "special": true
    },
    {
      "id": 464,
      "content": "[control_462]",
      "single_word": false,
      "lstrip": false,
      "rstrip": false,
      "normalized": false,
      "special": true
    },
    {
      "id": 465,
      "content": "[control_463]",
      "single_word": false,
      "lstrip": false,
      "rstrip": false,
      "normalized": false,
      "special": true
    },
    {
      "id": 466,
      "content": "[control_464]",
      "single_word": false,
      "lstrip": false,
      "rstrip": false,
      "normalized": false,
      "special": true
    },
    {
      "id": 467,
      "content": "[control_465]",
      "single_word": false,
      "lstrip": false,
      "rstrip": false,
      "normalized": false,
      "special": true
    },
    {
      "id": 468,
      "content": "[control_466]",
      "single_word": false,
      "lstrip": false,
      "rstrip": false,
      "normalized": false,
      "special": true
    },
    {
      "id": 469,
      "content": "[control_467]",
      "single_word": false,
      "lstrip": false,
      "rstrip": false,
      "normalized": false,
      "special": true
    },
    {
      "id": 470,
      "content": "[control_468]",
      "single_word": false,
      "lstrip": false,
      "rstrip": false,
      "normalized": false,
      "special": true
    },
    {
      "id": 471,
      "content": "[control_469]",
      "single_word": false,
      "lstrip": false,
      "rstrip": false,
      "normalized": false,
      "special": true
    },
    {
      "id": 472,
      "content": "[control_470]",
      "single_word": false,
      "lstrip": false,
      "rstrip": false,
      "normalized": false,
      "special": true
    },
    {
      "id": 473,
      "content": "[control_471]",
      "single_word": false,
      "lstrip": false,
      "rstrip": false,
      "normalized": false,
      "special": true
    },
    {
      "id": 474,
      "content": "[control_472]",
      "single_word": false,
      "lstrip": false,
      "rstrip": false,
      "normalized": false,
      "special": true
    },
    {
      "id": 475,
      "content": "[control_473]",
      "single_word": false,
      "lstrip": false,
      "rstrip": false,
      "normalized": false,
      "special": true
    },
    {
      "id": 476,
      "content": "[control_474]",
      "single_word": false,
      "lstrip": false,
      "rstrip": false,
      "normalized": false,
      "special": true
    },
    {
      "id": 477,
      "content": "[control_475]",
      "single_word": false,
      "lstrip": false,
      "rstrip": false,
      "normalized": false,
      "special": true
    },
    {
      "id": 478,
      "content": "[control_476]",
      "single_word": false,
      "lstrip": false,
      "rstrip": false,
      "normalized": false,
      "special": true
    },
    {
      "id": 479,
      "content": "[control_477]",
      "single_word": false,
      "lstrip": false,
      "rstrip": false,
      "normalized": false,
      "special": true
    },
    {
      "id": 480,
      "content": "[control_478]",
      "single_word": false,
      "lstrip": false,
      "rstrip": false,
      "normalized": false,
      "special": true
    },
    {
      "id": 481,
      "content": "[control_479]",
      "single_word": false,
      "lstrip": false,
      "rstrip": false,
      "normalized": false,
      "special": true
    },
    {
      "id": 482,
      "content": "[control_480]",
      "single_word": false,
      "lstrip": false,
      "rstrip": false,
      "normalized": false,
      "special": true
    },
    {
      "id": 483,
      "content": "[control_481]",
      "single_word": false,
      "lstrip": false,
      "rstrip": false,
      "normalized": false,
      "special": true
    },
    {
      "id": 484,
      "content": "[control_482]",
      "single_word": false,
      "lstrip": false,
      "rstrip": false,
      "normalized": false,
      "special": true
    },
    {
      "id": 485,
      "content": "[control_483]",
      "single_word": false,
      "lstrip": false,
      "rstrip": false,
      "normalized": false,
      "special": true
    },
    {
      "id": 486,
      "content": "[control_484]",
      "single_word": false,
      "lstrip": false,
      "rstrip": false,
      "normalized": false,
      "special": true
    },
    {
      "id": 487,
      "content": "[control_485]",
      "single_word": false,
      "lstrip": false,
      "rstrip": false,
      "normalized": false,
      "special": true
    },
    {
      "id": 488,
      "content": "[control_486]",
      "single_word": false,
      "lstrip": false,
      "rstrip": false,
      "normalized": false,
      "special": true
    },
    {
      "id": 489,
      "content": "[control_487]",
      "single_word": false,
      "lstrip": false,
      "rstrip": false,
      "normalized": false,
      "special": true
    },
    {
      "id": 490,
      "content": "[control_488]",
      "single_word": false,
      "lstrip": false,
      "rstrip": false,
      "normalized": false,
      "special": true
    },
    {
      "id": 491,
      "content": "[control_489]",
      "single_word": false,
      "lstrip": false,
      "rstrip": false,
      "normalized": false,
      "special": true
    },
    {
      "id": 492,
      "content": "[control_490]",
      "single_word": false,
      "lstrip": false,
      "rstrip": false,
      "normalized": false,
      "special": true
    },
    {
      "id": 493,
      "content": "[control_491]",
      "single_word": false,
      "lstrip": false,
      "rstrip": false,
      "normalized": false,
      "special": true
    },
    {
      "id": 494,
      "content": "[control_492]",
      "single_word": false,
      "lstrip": false,
      "rstrip": false,
      "normalized": false,
      "special": true
    },
    {
      "id": 495,
      "content": "[control_493]",
      "single_word": false,
      "lstrip": false,
      "rstrip": false,
      "normalized": false,
      "special": true
    },
    {
      "id": 496,
      "content": "[control_494]",
      "single_word": false,
      "lstrip": false,
      "rstrip": false,
      "normalized": false,
      "special": true
    },
    {
      "id": 497,
      "content": "[control_495]",
      "single_word": false,
      "lstrip": false,
      "rstrip": false,
      "normalized": false,
      "special": true
    },
    {
      "id": 498,
      "content": "[control_496]",
      "single_word": false,
      "lstrip": false,
      "rstrip": false,
      "normalized": false,
      "special": true
    },
    {
      "id": 499,
      "content": "[control_497]",
      "single_word": false,
      "lstrip": false,
      "rstrip": false,
      "normalized": false,
      "special": true
    },
    {
      "id": 500,
      "content": "[control_498]",
      "single_word": false,
      "lstrip": false,
      "rstrip": false,
      "normalized": false,
      "special": true
    },
    {
      "id": 501,
      "content": "[control_499]",
      "single_word": false,
      "lstrip": false,
      "rstrip": false,
      "normalized": false,
      "special": true
    },
    {
      "id": 502,
      "content": "[control_500]",
      "single_word": false,
      "lstrip": false,
      "rstrip": false,
      "normalized": false,
      "special": true
    },
    {
      "id": 503,
      "content": "[control_501]",
      "single_word": false,
      "lstrip": false,
      "rstrip": false,
      "normalized": false,
      "special": true
    },
    {
      "id": 504,
      "content": "[control_502]",
      "single_word": false,
      "lstrip": false,
      "rstrip": false,
      "normalized": false,
      "special": true
    },
    {
      "id": 505,
      "content": "[control_503]",
      "single_word": false,
      "lstrip": false,
      "rstrip": false,
      "normalized": false,
      "special": true
    },
    {
      "id": 506,
      "content": "[control_504]",
      "single_word": false,
      "lstrip": false,
      "rstrip": false,
      "normalized": false,
      "special": true
    },
    {
      "id": 507,
      "content": "[control_505]",
      "single_word": false,
      "lstrip": false,
      "rstrip": false,
      "normalized": false,
      "special": true
    },
    {
      "id": 508,
      "content": "[control_506]",
      "single_word": false,
      "lstrip": false,
      "rstrip": false,
      "normalized": false,
      "special": true
    },
    {
      "id": 509,
      "content": "[control_507]",
      "single_word": false,
      "lstrip": false,
      "rstrip": false,
      "normalized": false,
      "special": true
    },
    {
      "id": 510,
      "content": "[control_508]",
      "single_word": false,
      "lstrip": false,
      "rstrip": false,
      "normalized": false,
      "special": true
    },
    {
      "id": 511,
      "content": "[control_509]",
      "single_word": false,
      "lstrip": false,
      "rstrip": false,
      "normalized": false,
      "special": true
    },
    {
      "id": 512,
      "content": "[control_510]",
      "single_word": false,
      "lstrip": false,
      "rstrip": false,
      "normalized": false,
      "special": true
    },
    {
      "id": 513,
      "content": "[control_511]",
      "single_word": false,
      "lstrip": false,
      "rstrip": false,
      "normalized": false,
      "special": true
    },
    {
      "id": 514,
      "content": "[control_512]",
      "single_word": false,
      "lstrip": false,
      "rstrip": false,
      "normalized": false,
      "special": true
    },
    {
      "id": 515,
      "content": "[control_513]",
      "single_word": false,
      "lstrip": false,
      "rstrip": false,
      "normalized": false,
      "special": true
    },
    {
      "id": 516,
      "content": "[control_514]",
      "single_word": false,
      "lstrip": false,
      "rstrip": false,
      "normalized": false,
      "special": true
    },
    {
      "id": 517,
      "content": "[control_515]",
      "single_word": false,
      "lstrip": false,
      "rstrip": false,
      "normalized": false,
      "special": true
    },
    {
      "id": 518,
      "content": "[control_516]",
      "single_word": false,
      "lstrip": false,
      "rstrip": false,
      "normalized": false,
      "special": true
    },
    {
      "id": 519,
      "content": "[control_517]",
      "single_word": false,
      "lstrip": false,
      "rstrip": false,
      "normalized": false,
      "special": true
    },
    {
      "id": 520,
      "content": "[control_518]",
      "single_word": false,
      "lstrip": false,
      "rstrip": false,
      "normalized": false,
      "special": true
    },
    {
      "id": 521,
      "content": "[control_519]",
      "single_word": false,
      "lstrip": false,
      "rstrip": false,
      "normalized": false,
      "special": true
    },
    {
      "id": 522,
      "content": "[control_520]",
      "single_word": false,
      "lstrip": false,
      "rstrip": false,
      "normalized": false,
      "special": true
    },
    {
      "id": 523,
      "content": "[control_521]",
      "single_word": false,
      "lstrip": false,
      "rstrip": false,
      "normalized": false,
      "special": true
    },
    {
      "id": 524,
      "content": "[control_522]",
      "single_word": false,
      "lstrip": false,
      "rstrip": false,
      "normalized": false,
      "special": true
    },
    {
      "id": 525,
      "content": "[control_523]",
      "single_word": false,
      "lstrip": false,
      "rstrip": false,
      "normalized": false,
      "special": true
    },
    {
      "id": 526,
      "content": "[control_524]",
      "single_word": false,
      "lstrip": false,
      "rstrip": false,
      "normalized": false,
      "special": true
    },
    {
      "id": 527,
      "content": "[control_525]",
      "single_word": false,
      "lstrip": false,
      "rstrip": false,
      "normalized": false,
      "special": true
    },
    {
      "id": 528,
      "content": "[control_526]",
      "single_word": false,
      "lstrip": false,
      "rstrip": false,
      "normalized": false,
      "special": true
    },
    {
      "id": 529,
      "content": "[control_527]",
      "single_word": false,
      "lstrip": false,
      "rstrip": false,
      "normalized": false,
      "special": true
    },
    {
      "id": 530,
      "content": "[control_528]",
      "single_word": false,
      "lstrip": false,
      "rstrip": false,
      "normalized": false,
      "special": true
    },
    {
      "id": 531,
      "content": "[control_529]",
      "single_word": false,
      "lstrip": false,
      "rstrip": false,
      "normalized": false,
      "special": true
    },
    {
      "id": 532,
      "content": "[control_530]",
      "single_word": false,
      "lstrip": false,
      "rstrip": false,
      "normalized": false,
      "special": true
    },
    {
      "id": 533,
      "content": "[control_531]",
      "single_word": false,
      "lstrip": false,
      "rstrip": false,
      "normalized": false,
      "special": true
    },
    {
      "id": 534,
      "content": "[control_532]",
      "single_word": false,
      "lstrip": false,
      "rstrip": false,
      "normalized": false,
      "special": true
    },
    {
      "id": 535,
      "content": "[control_533]",
      "single_word": false,
      "lstrip": false,
      "rstrip": false,
      "normalized": false,
      "special": true
    },
    {
      "id": 536,
      "content": "[control_534]",
      "single_word": false,
      "lstrip": false,
      "rstrip": false,
      "normalized": false,
      "special": true
    },
    {
      "id": 537,
      "content": "[control_535]",
      "single_word": false,
      "lstrip": false,
      "rstrip": false,
      "normalized": false,
      "special": true
    },
    {
      "id": 538,
      "content": "[control_536]",
      "single_word": false,
      "lstrip": false,
      "rstrip": false,
      "normalized": false,
      "special": true
    },
    {
      "id": 539,
      "content": "[control_537]",
      "single_word": false,
      "lstrip": false,
      "rstrip": false,
      "normalized": false,
      "special": true
    },
    {
      "id": 540,
      "content": "[control_538]",
      "single_word": false,
      "lstrip": false,
      "rstrip": false,
      "normalized": false,
      "special": true
    },
    {
      "id": 541,
      "content": "[control_539]",
      "single_word": false,
      "lstrip": false,
      "rstrip": false,
      "normalized": false,
      "special": true
    },
    {
      "id": 542,
      "content": "[control_540]",
      "single_word": false,
      "lstrip": false,
      "rstrip": false,
      "normalized": false,
      "special": true
    },
    {
      "id": 543,
      "content": "[control_541]",
      "single_word": false,
      "lstrip": false,
      "rstrip": false,
      "normalized": false,
      "special": true
    },
    {
      "id": 544,
      "content": "[control_542]",
      "single_word": false,
      "lstrip": false,
      "rstrip": false,
      "normalized": false,
      "special": true
    },
    {
      "id": 545,
      "content": "[control_543]",
      "single_word": false,
      "lstrip": false,
      "rstrip": false,
      "normalized": false,
      "special": true
    },
    {
      "id": 546,
      "content": "[control_544]",
      "single_word": false,
      "lstrip": false,
      "rstrip": false,
      "normalized": false,
      "special": true
    },
    {
      "id": 547,
      "content": "[control_545]",
      "single_word": false,
      "lstrip": false,
      "rstrip": false,
      "normalized": false,
      "special": true
    },
    {
      "id": 548,
      "content": "[control_546]",
      "single_word": false,
      "lstrip": false,
      "rstrip": false,
      "normalized": false,
      "special": true
    },
    {
      "id": 549,
      "content": "[control_547]",
      "single_word": false,
      "lstrip": false,
      "rstrip": false,
      "normalized": false,
      "special": true
    },
    {
      "id": 550,
      "content": "[control_548]",
      "single_word": false,
      "lstrip": false,
      "rstrip": false,
      "normalized": false,
      "special": true
    },
    {
      "id": 551,
      "content": "[control_549]",
      "single_word": false,
      "lstrip": false,
      "rstrip": false,
      "normalized": false,
      "special": true
    },
    {
      "id": 552,
      "content": "[control_550]",
      "single_word": false,
      "lstrip": false,
      "rstrip": false,
      "normalized": false,
      "special": true
    },
    {
      "id": 553,
      "content": "[control_551]",
      "single_word": false,
      "lstrip": false,
      "rstrip": false,
      "normalized": false,
      "special": true
    },
    {
      "id": 554,
      "content": "[control_552]",
      "single_word": false,
      "lstrip": false,
      "rstrip": false,
      "normalized": false,
      "special": true
    },
    {
      "id": 555,
      "content": "[control_553]",
      "single_word": false,
      "lstrip": false,
      "rstrip": false,
      "normalized": false,
      "special": true
    },
    {
      "id": 556,
      "content": "[control_554]",
      "single_word": false,
      "lstrip": false,
      "rstrip": false,
      "normalized": false,
      "special": true
    },
    {
      "id": 557,
      "content": "[control_555]",
      "single_word": false,
      "lstrip": false,
      "rstrip": false,
      "normalized": false,
      "special": true
    },
    {
      "id": 558,
      "content": "[control_556]",
      "single_word": false,
      "lstrip": false,
      "rstrip": false,
      "normalized": false,
      "special": true
    },
    {
      "id": 559,
      "content": "[control_557]",
      "single_word": false,
      "lstrip": false,
      "rstrip": false,
      "normalized": false,
      "special": true
    },
    {
      "id": 560,
      "content": "[control_558]",
      "single_word": false,
      "lstrip": false,
      "rstrip": false,
      "normalized": false,
      "special": true
    },
    {
      "id": 561,
      "content": "[control_559]",
      "single_word": false,
      "lstrip": false,
      "rstrip": false,
      "normalized": false,
      "special": true
    },
    {
      "id": 562,
      "content": "[control_560]",
      "single_word": false,
      "lstrip": false,
      "rstrip": false,
      "normalized": false,
      "special": true
    },
    {
      "id": 563,
      "content": "[control_561]",
      "single_word": false,
      "lstrip": false,
      "rstrip": false,
      "normalized": false,
      "special": true
    },
    {
      "id": 564,
      "content": "[control_562]",
      "single_word": false,
      "lstrip": false,
      "rstrip": false,
      "normalized": false,
      "special": true
    },
    {
      "id": 565,
      "content": "[control_563]",
      "single_word": false,
      "lstrip": false,
      "rstrip": false,
      "normalized": false,
      "special": true
    },
    {
      "id": 566,
      "content": "[control_564]",
      "single_word": false,
      "lstrip": false,
      "rstrip": false,
      "normalized": false,
      "special": true
    },
    {
      "id": 567,
      "content": "[control_565]",
      "single_word": false,
      "lstrip": false,
      "rstrip": false,
      "normalized": false,
      "special": true
    },
    {
      "id": 568,
      "content": "[control_566]",
      "single_word": false,
      "lstrip": false,
      "rstrip": false,
      "normalized": false,
      "special": true
    },
    {
      "id": 569,
      "content": "[control_567]",
      "single_word": false,
      "lstrip": false,
      "rstrip": false,
      "normalized": false,
      "special": true
    },
    {
      "id": 570,
      "content": "[control_568]",
      "single_word": false,
      "lstrip": false,
      "rstrip": false,
      "normalized": false,
      "special": true
    },
    {
      "id": 571,
      "content": "[control_569]",
      "single_word": false,
      "lstrip": false,
      "rstrip": false,
      "normalized": false,
      "special": true
    },
    {
      "id": 572,
      "content": "[control_570]",
      "single_word": false,
      "lstrip": false,
      "rstrip": false,
      "normalized": false,
      "special": true
    },
    {
      "id": 573,
      "content": "[control_571]",
      "single_word": false,
      "lstrip": false,
      "rstrip": false,
      "normalized": false,
      "special": true
    },
    {
      "id": 574,
      "content": "[control_572]",
      "single_word": false,
      "lstrip": false,
      "rstrip": false,
      "normalized": false,
      "special": true
    },
    {
      "id": 575,
      "content": "[control_573]",
      "single_word": false,
      "lstrip": false,
      "rstrip": false,
      "normalized": false,
      "special": true
    },
    {
      "id": 576,
      "content": "[control_574]",
      "single_word": false,
      "lstrip": false,
      "rstrip": false,
      "normalized": false,
      "special": true
    },
    {
      "id": 577,
      "content": "[control_575]",
      "single_word": false,
      "lstrip": false,
      "rstrip": false,
      "normalized": false,
      "special": true
    },
    {
      "id": 578,
      "content": "[control_576]",
      "single_word": false,
      "lstrip": false,
      "rstrip": false,
      "normalized": false,
      "special": true
    },
    {
      "id": 579,
      "content": "[control_577]",
      "single_word": false,
      "lstrip": false,
      "rstrip": false,
      "normalized": false,
      "special": true
    },
    {
      "id": 580,
      "content": "[control_578]",
      "single_word": false,
      "lstrip": false,
      "rstrip": false,
      "normalized": false,
      "special": true
    },
    {
      "id": 581,
      "content": "[control_579]",
      "single_word": false,
      "lstrip": false,
      "rstrip": false,
      "normalized": false,
      "special": true
    },
    {
      "id": 582,
      "content": "[control_580]",
      "single_word": false,
      "lstrip": false,
      "rstrip": false,
      "normalized": false,
      "special": true
    },
    {
      "id": 583,
      "content": "[control_581]",
      "single_word": false,
      "lstrip": false,
      "rstrip": false,
      "normalized": false,
      "special": true
    },
    {
      "id": 584,
      "content": "[control_582]",
      "single_word": false,
      "lstrip": false,
      "rstrip": false,
      "normalized": false,
      "special": true
    },
    {
      "id": 585,
      "content": "[control_583]",
      "single_word": false,
      "lstrip": false,
      "rstrip": false,
      "normalized": false,
      "special": true
    },
    {
      "id": 586,
      "content": "[control_584]",
      "single_word": false,
      "lstrip": false,
      "rstrip": false,
      "normalized": false,
      "special": true
    },
    {
      "id": 587,
      "content": "[control_585]",
      "single_word": false,
      "lstrip": false,
      "rstrip": false,
      "normalized": false,
      "special": true
    },
    {
      "id": 588,
      "content": "[control_586]",
      "single_word": false,
      "lstrip": false,
      "rstrip": false,
      "normalized": false,
      "special": true
    },
    {
      "id": 589,
      "content": "[control_587]",
      "single_word": false,
      "lstrip": false,
      "rstrip": false,
      "normalized": false,
      "special": true
    },
    {
      "id": 590,
      "content": "[control_588]",
      "single_word": false,
      "lstrip": false,
      "rstrip": false,
      "normalized": false,
      "special": true
    },
    {
      "id": 591,
      "content": "[control_589]",
      "single_word": false,
      "lstrip": false,
      "rstrip": false,
      "normalized": false,
      "special": true
    },
    {
      "id": 592,
      "content": "[control_590]",
      "single_word": false,
      "lstrip": false,
      "rstrip": false,
      "normalized": false,
      "special": true
    },
    {
      "id": 593,
      "content": "[control_591]",
      "single_word": false,
      "lstrip": false,
      "rstrip": false,
      "normalized": false,
      "special": true
    },
    {
      "id": 594,
      "content": "[control_592]",
      "single_word": false,
      "lstrip": false,
      "rstrip": false,
      "normalized": false,
      "special": true
    },
    {
      "id": 595,
      "content": "[control_593]",
      "single_word": false,
      "lstrip": false,
      "rstrip": false,
      "normalized": false,
      "special": true
    },
    {
      "id": 596,
      "content": "[control_594]",
      "single_word": false,
      "lstrip": false,
      "rstrip": false,
      "normalized": false,
      "special": true
    },
    {
      "id": 597,
      "content": "[control_595]",
      "single_word": false,
      "lstrip": false,
      "rstrip": false,
      "normalized": false,
      "special": true
    },
    {
      "id": 598,
      "content": "[control_596]",
      "single_word": false,
      "lstrip": false,
      "rstrip": false,
      "normalized": false,
      "special": true
    },
    {
      "id": 599,
      "content": "[control_597]",
      "single_word": false,
      "lstrip": false,
      "rstrip": false,
      "normalized": false,
      "special": true
    },
    {
      "id": 600,
      "content": "[control_598]",
      "single_word": false,
      "lstrip": false,
      "rstrip": false,
      "normalized": false,
      "special": true
    },
    {
      "id": 601,
      "content": "[control_599]",
      "single_word": false,
      "lstrip": false,
      "rstrip": false,
      "normalized": false,
      "special": true
    },
    {
      "id": 602,
      "content": "[control_600]",
      "single_word": false,
      "lstrip": false,
      "rstrip": false,
      "normalized": false,
      "special": true
    },
    {
      "id": 603,
      "content": "[control_601]",
      "single_word": false,
      "lstrip": false,
      "rstrip": false,
      "normalized": false,
      "special": true
    },
    {
      "id": 604,
      "content": "[control_602]",
      "single_word": false,
      "lstrip": false,
      "rstrip": false,
      "normalized": false,
      "special": true
    },
    {
      "id": 605,
      "content": "[control_603]",
      "single_word": false,
      "lstrip": false,
      "rstrip": false,
      "normalized": false,
      "special": true
    },
    {
      "id": 606,
      "content": "[control_604]",
      "single_word": false,
      "lstrip": false,
      "rstrip": false,
      "normalized": false,
      "special": true
    },
    {
      "id": 607,
      "content": "[control_605]",
      "single_word": false,
      "lstrip": false,
      "rstrip": false,
      "normalized": false,
      "special": true
    },
    {
      "id": 608,
      "content": "[control_606]",
      "single_word": false,
      "lstrip": false,
      "rstrip": false,
      "normalized": false,
      "special": true
    },
    {
      "id": 609,
      "content": "[control_607]",
      "single_word": false,
      "lstrip": false,
      "rstrip": false,
      "normalized": false,
      "special": true
    },
    {
      "id": 610,
      "content": "[control_608]",
      "single_word": false,
      "lstrip": false,
      "rstrip": false,
      "normalized": false,
      "special": true
    },
    {
      "id": 611,
      "content": "[control_609]",
      "single_word": false,
      "lstrip": false,
      "rstrip": false,
      "normalized": false,
      "special": true
    },
    {
      "id": 612,
      "content": "[control_610]",
      "single_word": false,
      "lstrip": false,
      "rstrip": false,
      "normalized": false,
      "special": true
    },
    {
      "id": 613,
      "content": "[control_611]",
      "single_word": false,
      "lstrip": false,
      "rstrip": false,
      "normalized": false,
      "special": true
    },
    {
      "id": 614,
      "content": "[control_612]",
      "single_word": false,
      "lstrip": false,
      "rstrip": false,
      "normalized": false,
      "special": true
    },
    {
      "id": 615,
      "content": "[control_613]",
      "single_word": false,
      "lstrip": false,
      "rstrip": false,
      "normalized": false,
      "special": true
    },
    {
      "id": 616,
      "content": "[control_614]",
      "single_word": false,
      "lstrip": false,
      "rstrip": false,
      "normalized": false,
      "special": true
    },
    {
      "id": 617,
      "content": "[control_615]",
      "single_word": false,
      "lstrip": false,
      "rstrip": false,
      "normalized": false,
      "special": true
    },
    {
      "id": 618,
      "content": "[control_616]",
      "single_word": false,
      "lstrip": false,
      "rstrip": false,
      "normalized": false,
      "special": true
    },
    {
      "id": 619,
      "content": "[control_617]",
      "single_word": false,
      "lstrip": false,
      "rstrip": false,
      "normalized": false,
      "special": true
    },
    {
      "id": 620,
      "content": "[control_618]",
      "single_word": false,
      "lstrip": false,
      "rstrip": false,
      "normalized": false,
      "special": true
    },
    {
      "id": 621,
      "content": "[control_619]",
      "single_word": false,
      "lstrip": false,
      "rstrip": false,
      "normalized": false,
      "special": true
    },
    {
      "id": 622,
      "content": "[control_620]",
      "single_word": false,
      "lstrip": false,
      "rstrip": false,
      "normalized": false,
      "special": true
    },
    {
      "id": 623,
      "content": "[control_621]",
      "single_word": false,
      "lstrip": false,
      "rstrip": false,
      "normalized": false,
      "special": true
    },
    {
      "id": 624,
      "content": "[control_622]",
      "single_word": false,
      "lstrip": false,
      "rstrip": false,
      "normalized": false,
      "special": true
    },
    {
      "id": 625,
      "content": "[control_623]",
      "single_word": false,
      "lstrip": false,
      "rstrip": false,
      "normalized": false,
      "special": true
    },
    {
      "id": 626,
      "content": "[control_624]",
      "single_word": false,
      "lstrip": false,
      "rstrip": false,
      "normalized": false,
      "special": true
    },
    {
      "id": 627,
      "content": "[control_625]",
      "single_word": false,
      "lstrip": false,
      "rstrip": false,
      "normalized": false,
      "special": true
    },
    {
      "id": 628,
      "content": "[control_626]",
      "single_word": false,
      "lstrip": false,
      "rstrip": false,
      "normalized": false,
      "special": true
    },
    {
      "id": 629,
      "content": "[control_627]",
      "single_word": false,
      "lstrip": false,
      "rstrip": false,
      "normalized": false,
      "special": true
    },
    {
      "id": 630,
      "content": "[control_628]",
      "single_word": false,
      "lstrip": false,
      "rstrip": false,
      "normalized": false,
      "special": true
    },
    {
      "id": 631,
      "content": "[control_629]",
      "single_word": false,
      "lstrip": false,
      "rstrip": false,
      "normalized": false,
      "special": true
    },
    {
      "id": 632,
      "content": "[control_630]",
      "single_word": false,
      "lstrip": false,
      "rstrip": false,
      "normalized": false,
      "special": true
    },
    {
      "id": 633,
      "content": "[control_631]",
      "single_word": false,
      "lstrip": false,
      "rstrip": false,
      "normalized": false,
      "special": true
    },
    {
      "id": 634,
      "content": "[control_632]",
      "single_word": false,
      "lstrip": false,
      "rstrip": false,
      "normalized": false,
      "special": true
    },
    {
      "id": 635,
      "content": "[control_633]",
      "single_word": false,
      "lstrip": false,
      "rstrip": false,
      "normalized": false,
      "special": true
    },
    {
      "id": 636,
      "content": "[control_634]",
      "single_word": false,
      "lstrip": false,
      "rstrip": false,
      "normalized": false,
      "special": true
    },
    {
      "id": 637,
      "content": "[control_635]",
      "single_word": false,
      "lstrip": false,
      "rstrip": false,
      "normalized": false,
      "special": true
    },
    {
      "id": 638,
      "content": "[control_636]",
      "single_word": false,
      "lstrip": false,
      "rstrip": false,
      "normalized": false,
      "special": true
    },
    {
      "id": 639,
      "content": "[control_637]",
      "single_word": false,
      "lstrip": false,
      "rstrip": false,
      "normalized": false,
      "special": true
    },
    {
      "id": 640,
      "content": "[control_638]",
      "single_word": false,
      "lstrip": false,
      "rstrip": false,
      "normalized": false,
      "special": true
    },
    {
      "id": 641,
      "content": "[control_639]",
      "single_word": false,
      "lstrip": false,
      "rstrip": false,
      "normalized": false,
      "special": true
    },
    {
      "id": 642,
      "content": "[control_640]",
      "single_word": false,
      "lstrip": false,
      "rstrip": false,
      "normalized": false,
      "special": true
    },
    {
      "id": 643,
      "content": "[control_641]",
      "single_word": false,
      "lstrip": false,
      "rstrip": false,
      "normalized": false,
      "special": true
    },
    {
      "id": 644,
      "content": "[control_642]",
      "single_word": false,
      "lstrip": false,
      "rstrip": false,
      "normalized": false,
      "special": true
    },
    {
      "id": 645,
      "content": "[control_643]",
      "single_word": false,
      "lstrip": false,
      "rstrip": false,
      "normalized": false,
      "special": true
    },
    {
      "id": 646,
      "content": "[control_644]",
      "single_word": false,
      "lstrip": false,
      "rstrip": false,
      "normalized": false,
      "special": true
    },
    {
      "id": 647,
      "content": "[control_645]",
      "single_word": false,
      "lstrip": false,
      "rstrip": false,
      "normalized": false,
      "special": true
    },
    {
      "id": 648,
      "content": "[control_646]",
      "single_word": false,
      "lstrip": false,
      "rstrip": false,
      "normalized": false,
      "special": true
    },
    {
      "id": 649,
      "content": "[control_647]",
      "single_word": false,
      "lstrip": false,
      "rstrip": false,
      "normalized": false,
      "special": true
    },
    {
      "id": 650,
      "content": "[control_648]",
      "single_word": false,
      "lstrip": false,
      "rstrip": false,
      "normalized": false,
      "special": true
    },
    {
      "id": 651,
      "content": "[control_649]",
      "single_word": false,
      "lstrip": false,
      "rstrip": false,
      "normalized": false,
      "special": true
    },
    {
      "id": 652,
      "content": "[control_650]",
      "single_word": false,
      "lstrip": false,
      "rstrip": false,
      "normalized": false,
      "special": true
    },
    {
      "id": 653,
      "content": "[control_651]",
      "single_word": false,
      "lstrip": false,
      "rstrip": false,
      "normalized": false,
      "special": true
    },
    {
      "id": 654,
      "content": "[control_652]",
      "single_word": false,
      "lstrip": false,
      "rstrip": false,
      "normalized": false,
      "special": true
    },
    {
      "id": 655,
      "content": "[control_653]",
      "single_word": false,
      "lstrip": false,
      "rstrip": false,
      "normalized": false,
      "special": true
    },
    {
      "id": 656,
      "content": "[control_654]",
      "single_word": false,
      "lstrip": false,
      "rstrip": false,
      "normalized": false,
      "special": true
    },
    {
      "id": 657,
      "content": "[control_655]",
      "single_word": false,
      "lstrip": false,
      "rstrip": false,
      "normalized": false,
      "special": true
    },
    {
      "id": 658,
      "content": "[control_656]",
      "single_word": false,
      "lstrip": false,
      "rstrip": false,
      "normalized": false,
      "special": true
    },
    {
      "id": 659,
      "content": "[control_657]",
      "single_word": false,
      "lstrip": false,
      "rstrip": false,
      "normalized": false,
      "special": true
    },
    {
      "id": 660,
      "content": "[control_658]",
      "single_word": false,
      "lstrip": false,
      "rstrip": false,
      "normalized": false,
      "special": true
    },
    {
      "id": 661,
      "content": "[control_659]",
      "single_word": false,
      "lstrip": false,
      "rstrip": false,
      "normalized": false,
      "special": true
    },
    {
      "id": 662,
      "content": "[control_660]",
      "single_word": false,
      "lstrip": false,
      "rstrip": false,
      "normalized": false,
      "special": true
    },
    {
      "id": 663,
      "content": "[control_661]",
      "single_word": false,
      "lstrip": false,
      "rstrip": false,
      "normalized": false,
      "special": true
    },
    {
      "id": 664,
      "content": "[control_662]",
      "single_word": false,
      "lstrip": false,
      "rstrip": false,
      "normalized": false,
      "special": true
    },
    {
      "id": 665,
      "content": "[control_663]",
      "single_word": false,
      "lstrip": false,
      "rstrip": false,
      "normalized": false,
      "special": true
    },
    {
      "id": 666,
      "content": "[control_664]",
      "single_word": false,
      "lstrip": false,
      "rstrip": false,
      "normalized": false,
      "special": true
    },
    {
      "id": 667,
      "content": "[control_665]",
      "single_word": false,
      "lstrip": false,
      "rstrip": false,
      "normalized": false,
      "special": true
    },
    {
      "id": 668,
      "content": "[control_666]",
      "single_word": false,
      "lstrip": false,
      "rstrip": false,
      "normalized": false,
      "special": true
    },
    {
      "id": 669,
      "content": "[control_667]",
      "single_word": false,
      "lstrip": false,
      "rstrip": false,
      "normalized": false,
      "special": true
    },
    {
      "id": 670,
      "content": "[control_668]",
      "single_word": false,
      "lstrip": false,
      "rstrip": false,
      "normalized": false,
      "special": true
    },
    {
      "id": 671,
      "content": "[control_669]",
      "single_word": false,
      "lstrip": false,
      "rstrip": false,
      "normalized": false,
      "special": true
    },
    {
      "id": 672,
      "content": "[control_670]",
      "single_word": false,
      "lstrip": false,
      "rstrip": false,
      "normalized": false,
      "special": true
    },
    {
      "id": 673,
      "content": "[control_671]",
      "single_word": false,
      "lstrip": false,
      "rstrip": false,
      "normalized": false,
      "special": true
    },
    {
      "id": 674,
      "content": "[control_672]",
      "single_word": false,
      "lstrip": false,
      "rstrip": false,
      "normalized": false,
      "special": true
    },
    {
      "id": 675,
      "content": "[control_673]",
      "single_word": false,
      "lstrip": false,
      "rstrip": false,
      "normalized": false,
      "special": true
    },
    {
      "id": 676,
      "content": "[control_674]",
      "single_word": false,
      "lstrip": false,
      "rstrip": false,
      "normalized": false,
      "special": true
    },
    {
      "id": 677,
      "content": "[control_675]",
      "single_word": false,
      "lstrip": false,
      "rstrip": false,
      "normalized": false,
      "special": true
    },
    {
      "id": 678,
      "content": "[control_676]",
      "single_word": false,
      "lstrip": false,
      "rstrip": false,
      "normalized": false,
      "special": true
    },
    {
      "id": 679,
      "content": "[control_677]",
      "single_word": false,
      "lstrip": false,
      "rstrip": false,
      "normalized": false,
      "special": true
    },
    {
      "id": 680,
      "content": "[control_678]",
      "single_word": false,
      "lstrip": false,
      "rstrip": false,
      "normalized": false,
      "special": true
    },
    {
      "id": 681,
      "content": "[control_679]",
      "single_word": false,
      "lstrip": false,
      "rstrip": false,
      "normalized": false,
      "special": true
    },
    {
      "id": 682,
      "content": "[control_680]",
      "single_word": false,
      "lstrip": false,
      "rstrip": false,
      "normalized": false,
      "special": true
    },
    {
      "id": 683,
      "content": "[control_681]",
      "single_word": false,
      "lstrip": false,
      "rstrip": false,
      "normalized": false,
      "special": true
    },
    {
      "id": 684,
      "content": "[control_682]",
      "single_word": false,
      "lstrip": false,
      "rstrip": false,
      "normalized": false,
      "special": true
    },
    {
      "id": 685,
      "content": "[control_683]",
      "single_word": false,
      "lstrip": false,
      "rstrip": false,
      "normalized": false,
      "special": true
    },
    {
      "id": 686,
      "content": "[control_684]",
      "single_word": false,
      "lstrip": false,
      "rstrip": false,
      "normalized": false,
      "special": true
    },
    {
      "id": 687,
      "content": "[control_685]",
      "single_word": false,
      "lstrip": false,
      "rstrip": false,
      "normalized": false,
      "special": true
    },
    {
      "id": 688,
      "content": "[control_686]",
      "single_word": false,
      "lstrip": false,
      "rstrip": false,
      "normalized": false,
      "special": true
    },
    {
      "id": 689,
      "content": "[control_687]",
      "single_word": false,
      "lstrip": false,
      "rstrip": false,
      "normalized": false,
      "special": true
    },
    {
      "id": 690,
      "content": "[control_688]",
      "single_word": false,
      "lstrip": false,
      "rstrip": false,
      "normalized": false,
      "special": true
    },
    {
      "id": 691,
      "content": "[control_689]",
      "single_word": false,
      "lstrip": false,
      "rstrip": false,
      "normalized": false,
      "special": true
    },
    {
      "id": 692,
      "content": "[control_690]",
      "single_word": false,
      "lstrip": false,
      "rstrip": false,
      "normalized": false,
      "special": true
    },
    {
      "id": 693,
      "content": "[control_691]",
      "single_word": false,
      "lstrip": false,
      "rstrip": false,
      "normalized": false,
      "special": true
    },
    {
      "id": 694,
      "content": "[control_692]",
      "single_word": false,
      "lstrip": false,
      "rstrip": false,
      "normalized": false,
      "special": true
    },
    {
      "id": 695,
      "content": "[control_693]",
      "single_word": false,
      "lstrip": false,
      "rstrip": false,
      "normalized": false,
      "special": true
    },
    {
      "id": 696,
      "content": "[control_694]",
      "single_word": false,
      "lstrip": false,
      "rstrip": false,
      "normalized": false,
      "special": true
    },
    {
      "id": 697,
      "content": "[control_695]",
      "single_word": false,
      "lstrip": false,
      "rstrip": false,
      "normalized": false,
      "special": true
    },
    {
      "id": 698,
      "content": "[control_696]",
      "single_word": false,
      "lstrip": false,
      "rstrip": false,
      "normalized": false,
      "special": true
    },
    {
      "id": 699,
      "content": "[control_697]",
      "single_word": false,
      "lstrip": false,
      "rstrip": false,
      "normalized": false,
      "special": true
    },
    {
      "id": 700,
      "content": "[control_698]",
      "single_word": false,
      "lstrip": false,
      "rstrip": false,
      "normalized": false,
      "special": true
    },
    {
      "id": 701,
      "content": "[control_699]",
      "single_word": false,
      "lstrip": false,
      "rstrip": false,
      "normalized": false,
      "special": true
    },
    {
      "id": 702,
      "content": "[control_700]",
      "single_word": false,
      "lstrip": false,
      "rstrip": false,
      "normalized": false,
      "special": true
    },
    {
      "id": 703,
      "content": "[control_701]",
      "single_word": false,
      "lstrip": false,
      "rstrip": false,
      "normalized": false,
      "special": true
    },
    {
      "id": 704,
      "content": "[control_702]",
      "single_word": false,
      "lstrip": false,
      "rstrip": false,
      "normalized": false,
      "special": true
    },
    {
      "id": 705,
      "content": "[control_703]",
      "single_word": false,
      "lstrip": false,
      "rstrip": false,
      "normalized": false,
      "special": true
    },
    {
      "id": 706,
      "content": "[control_704]",
      "single_word": false,
      "lstrip": false,
      "rstrip": false,
      "normalized": false,
      "special": true
    },
    {
      "id": 707,
      "content": "[control_705]",
      "single_word": false,
      "lstrip": false,
      "rstrip": false,
      "normalized": false,
      "special": true
    },
    {
      "id": 708,
      "content": "[control_706]",
      "single_word": false,
      "lstrip": false,
      "rstrip": false,
      "normalized": false,
      "special": true
    },
    {
      "id": 709,
      "content": "[control_707]",
      "single_word": false,
      "lstrip": false,
      "rstrip": false,
      "normalized": false,
      "special": true
    },
    {
      "id": 710,
      "content": "[control_708]",
      "single_word": false,
      "lstrip": false,
      "rstrip": false,
      "normalized": false,
      "special": true
    },
    {
      "id": 711,
      "content": "[control_709]",
      "single_word": false,
      "lstrip": false,
      "rstrip": false,
      "normalized": false,
      "special": true
    },
    {
      "id": 712,
      "content": "[control_710]",
      "single_word": false,
      "lstrip": false,
      "rstrip": false,
      "normalized": false,
      "special": true
    },
    {
      "id": 713,
      "content": "[control_711]",
      "single_word": false,
      "lstrip": false,
      "rstrip": false,
      "normalized": false,
      "special": true
    },
    {
      "id": 714,
      "content": "[control_712]",
      "single_word": false,
      "lstrip": false,
      "rstrip": false,
      "normalized": false,
      "special": true
    },
    {
      "id": 715,
      "content": "[control_713]",
      "single_word": false,
      "lstrip": false,
      "rstrip": false,
      "normalized": false,
      "special": true
    },
    {
      "id": 716,
      "content": "[control_714]",
      "single_word": false,
      "lstrip": false,
      "rstrip": false,
      "normalized": false,
      "special": true
    },
    {
      "id": 717,
      "content": "[control_715]",
      "single_word": false,
      "lstrip": false,
      "rstrip": false,
      "normalized": false,
      "special": true
    },
    {
      "id": 718,
      "content": "[control_716]",
      "single_word": false,
      "lstrip": false,
      "rstrip": false,
      "normalized": false,
      "special": true
    },
    {
      "id": 719,
      "content": "[control_717]",
      "single_word": false,
      "lstrip": false,
      "rstrip": false,
      "normalized": false,
      "special": true
    },
    {
      "id": 720,
      "content": "[control_718]",
      "single_word": false,
      "lstrip": false,
      "rstrip": false,
      "normalized": false,
      "special": true
    },
    {
      "id": 721,
      "content": "[control_719]",
      "single_word": false,
      "lstrip": false,
      "rstrip": false,
      "normalized": false,
      "special": true
    },
    {
      "id": 722,
      "content": "[control_720]",
      "single_word": false,
      "lstrip": false,
      "rstrip": false,
      "normalized": false,
      "special": true
    },
    {
      "id": 723,
      "content": "[control_721]",
      "single_word": false,
      "lstrip": false,
      "rstrip": false,
      "normalized": false,
      "special": true
    },
    {
      "id": 724,
      "content": "[control_722]",
      "single_word": false,
      "lstrip": false,
      "rstrip": false,
      "normalized": false,
      "special": true
    },
    {
      "id": 725,
      "content": "[control_723]",
      "single_word": false,
      "lstrip": false,
      "rstrip": false,
      "normalized": false,
      "special": true
    },
    {
      "id": 726,
      "content": "[control_724]",
      "single_word": false,
      "lstrip": false,
      "rstrip": false,
      "normalized": false,
      "special": true
    },
    {
      "id": 727,
      "content": "[control_725]",
      "single_word": false,
      "lstrip": false,
      "rstrip": false,
      "normalized": false,
      "special": true
    },
    {
      "id": 728,
      "content": "[control_726]",
      "single_word": false,
      "lstrip": false,
      "rstrip": false,
      "normalized": false,
      "special": true
    },
    {
      "id": 729,
      "content": "[control_727]",
      "single_word": false,
      "lstrip": false,
      "rstrip": false,
      "normalized": false,
      "special": true
    },
    {
      "id": 730,
      "content": "[control_728]",
      "single_word": false,
      "lstrip": false,
      "rstrip": false,
      "normalized": false,
      "special": true
    },
    {
      "id": 731,
      "content": "[control_729]",
      "single_word": false,
      "lstrip": false,
      "rstrip": false,
      "normalized": false,
      "special": true
    },
    {
      "id": 732,
      "content": "[control_730]",
      "single_word": false,
      "lstrip": false,
      "rstrip": false,
      "normalized": false,
      "special": true
    },
    {
      "id": 733,
      "content": "[control_731]",
      "single_word": false,
      "lstrip": false,
      "rstrip": false,
      "normalized": false,
      "special": true
    },
    {
      "id": 734,
      "content": "[control_732]",
      "single_word": false,
      "lstrip": false,
      "rstrip": false,
      "normalized": false,
      "special": true
    },
    {
      "id": 735,
      "content": "[control_733]",
      "single_word": false,
      "lstrip": false,
      "rstrip": false,
      "normalized": false,
      "special": true
    },
    {
      "id": 736,
      "content": "[control_734]",
      "single_word": false,
      "lstrip": false,
      "rstrip": false,
      "normalized": false,
      "special": true
    },
    {
      "id": 737,
      "content": "[control_735]",
      "single_word": false,
      "lstrip": false,
      "rstrip": false,
      "normalized": false,
      "special": true
    },
    {
      "id": 738,
      "content": "[control_736]",
      "single_word": false,
      "lstrip": false,
      "rstrip": false,
      "normalized": false,
      "special": true
    },
    {
      "id": 739,
      "content": "[control_737]",
      "single_word": false,
      "lstrip": false,
      "rstrip": false,
      "normalized": false,
      "special": true
    },
    {
      "id": 740,
      "content": "[control_738]",
      "single_word": false,
      "lstrip": false,
      "rstrip": false,
      "normalized": false,
      "special": true
    },
    {
      "id": 741,
      "content": "[control_739]",
      "single_word": false,
      "lstrip": false,
      "rstrip": false,
      "normalized": false,
      "special": true
    },
    {
      "id": 742,
      "content": "[control_740]",
      "single_word": false,
      "lstrip": false,
      "rstrip": false,
      "normalized": false,
      "special": true
    },
    {
      "id": 743,
      "content": "[control_741]",
      "single_word": false,
      "lstrip": false,
      "rstrip": false,
      "normalized": false,
      "special": true
    },
    {
      "id": 744,
      "content": "[control_742]",
      "single_word": false,
      "lstrip": false,
      "rstrip": false,
      "normalized": false,
      "special": true
    },
    {
      "id": 745,
      "content": "[control_743]",
      "single_word": false,
      "lstrip": false,
      "rstrip": false,
      "normalized": false,
      "special": true
    },
    {
      "id": 746,
      "content": "[control_744]",
      "single_word": false,
      "lstrip": false,
      "rstrip": false,
      "normalized": false,
      "special": true
    },
    {
      "id": 747,
      "content": "[control_745]",
      "single_word": false,
      "lstrip": false,
      "rstrip": false,
      "normalized": false,
      "special": true
    },
    {
      "id": 748,
      "content": "[control_746]",
      "single_word": false,
      "lstrip": false,
      "rstrip": false,
      "normalized": false,
      "special": true
    },
    {
      "id": 749,
      "content": "[control_747]",
      "single_word": false,
      "lstrip": false,
      "rstrip": false,
      "normalized": false,
      "special": true
    },
    {
      "id": 750,
      "content": "[control_748]",
      "single_word": false,
      "lstrip": false,
      "rstrip": false,
      "normalized": false,
      "special": true
    },
    {
      "id": 751,
      "content": "[control_749]",
      "single_word": false,
      "lstrip": false,
      "rstrip": false,
      "normalized": false,
      "special": true
    },
    {
      "id": 752,
      "content": "[control_750]",
      "single_word": false,
      "lstrip": false,
      "rstrip": false,
      "normalized": false,
      "special": true
    },
    {
      "id": 753,
      "content": "[control_751]",
      "single_word": false,
      "lstrip": false,
      "rstrip": false,
      "normalized": false,
      "special": true
    },
    {
      "id": 754,
      "content": "[control_752]",
      "single_word": false,
      "lstrip": false,
      "rstrip": false,
      "normalized": false,
      "special": true
    },
    {
      "id": 755,
      "content": "[control_753]",
      "single_word": false,
      "lstrip": false,
      "rstrip": false,
      "normalized": false,
      "special": true
    },
    {
      "id": 756,
      "content": "[control_754]",
      "single_word": false,
      "lstrip": false,
      "rstrip": false,
      "normalized": false,
      "special": true
    },
    {
      "id": 757,
      "content": "[control_755]",
      "single_word": false,
      "lstrip": false,
      "rstrip": false,
      "normalized": false,
      "special": true
    },
    {
      "id": 758,
      "content": "[control_756]",
      "single_word": false,
      "lstrip": false,
      "rstrip": false,
      "normalized": false,
      "special": true
    },
    {
      "id": 759,
      "content": "[control_757]",
      "single_word": false,
      "lstrip": false,
      "rstrip": false,
      "normalized": false,
      "special": true
    },
    {
      "id": 760,
      "content": "[control_758]",
      "single_word": false,
      "lstrip": false,
      "rstrip": false,
      "normalized": false,
      "special": true
    },
    {
      "id": 761,
      "content": "[control_759]",
      "single_word": false,
      "lstrip": false,
      "rstrip": false,
      "normalized": false,
      "special": true
    },
    {
      "id": 762,
      "content": "[control_760]",
      "single_word": false,
      "lstrip": false,
      "rstrip": false,
      "normalized": false,
      "special": true
    },
    {
      "id": 763,
      "content": "[control_761]",
      "single_word": false,
      "lstrip": false,
      "rstrip": false,
      "normalized": false,
      "special": true
    },
    {
      "id": 764,
      "content": "[control_762]",
      "single_word": false,
      "lstrip": false,
      "rstrip": false,
      "normalized": false,
      "special": true
    },
    {
      "id": 765,
      "content": "[control_763]",
      "single_word": false,
      "lstrip": false,
      "rstrip": false,
      "normalized": false,
      "special": true
    },
    {
      "id": 766,
      "content": "[control_764]",
      "single_word": false,
      "lstrip": false,
      "rstrip": false,
      "normalized": false,
      "special": true
    },
    {
      "id": 767,
      "content": "[control_765]",
      "single_word": false,
      "lstrip": false,
      "rstrip": false,
      "normalized": false,
      "special": true
    },
    {
      "id": 768,
      "content": "[control_766]",
      "single_word": false,
      "lstrip": false,
      "rstrip": false,
      "normalized": false,
      "special": true
    },
    {
      "id": 769,
      "content": "[control_767]",
      "single_word": false,
      "lstrip": false,
      "rstrip": false,
      "normalized": false,
      "special": true
    },
    {
      "id": 770,
      "content": "[control_768]",
      "single_word": false,
      "lstrip": false,
      "rstrip": false,
      "normalized": false,
      "special": true
    }
  ],
  "normalizer": null,
  "pre_tokenizer": {
    "type": "Metaspace",
    "replacement": "▁",
    "prepend_scheme": "first",
    "split": false
  },
  "post_processor": {
    "type": "TemplateProcessing",
    "single": [
      {
        "SpecialToken": {
          "id": "<s>",
          "type_id": 0
        }
      },
      {
        "Sequence": {
          "id": "A",
          "type_id": 0
        }
      }
    ],
    "pair": [
      {
        "SpecialToken": {
          "id": "<s>",
          "type_id": 0
        }
      },
      {
        "Sequence": {
          "id": "A",
          "type_id": 0
        }
      },
      {
        "SpecialToken": {
          "id": "<s>",
          "type_id": 1
        }
      },
      {
        "Sequence": {
          "id": "B",
          "type_id": 1
        }
      }
    ],
    "special_tokens": {
      "<s>": {
        "id": "<s>",
        "ids": [
          1
        ],
        "tokens": [
          "<s>"
        ]
      }
    }
  },
  "decoder": {
    "type": "Sequence",
    "decoders": [
      {
        "type": "Replace",
        "pattern": {
          "String": "▁"
        },
        "content": " "
      },
      {
        "type": "ByteFallback"
      },
      {
        "type": "Fuse"
      },
      {
        "type": "Strip",
        "content": " ",
        "start": 1,
        "stop": 0
      }
    ]
  },
  "model": {
    "type": "BPE",
    "dropout": null,
    "unk_token": "<unk>",
    "continuing_subword_prefix": null,
    "end_of_word_suffix": null,
    "fuse_unk": true,
    "byte_fallback": true,
    "ignore_merges": false,
    "vocab": {
      "<unk>": 0,
      "<s>": 1,
      "</s>": 2,
      "[INST]": 3,
      "[/INST]": 4,
      "[TOOL_CALLS]": 5,
      "[AVAILABLE_TOOLS]": 6,
      "[/AVAILABLE_TOOLS]": 7,
      "[TOOL_RESULTS]": 8,
      "[/TOOL_RESULTS]": 9,
      "[control_8]": 10,
      "[control_9]": 11,
      "[control_10]": 12,
      "[control_11]": 13,
      "[control_12]": 14,
      "[control_13]": 15,
      "[control_14]": 16,
      "[control_15]": 17,
      "[control_16]": 18,
      "[control_17]": 19,
      "[control_18]": 20,
      "[control_19]": 21,
      "[control_20]": 22,
      "[control_21]": 23,
      "[control_22]": 24,
      "[control_23]": 25,
      "[control_24]": 26,
      "[control_25]": 27,
      "[control_26]": 28,
      "[control_27]": 29,
      "[control_28]": 30,
      "[control_29]": 31,
      "[control_30]": 32,
      "[control_31]": 33,
      "[control_32]": 34,
      "[control_33]": 35,
      "[control_34]": 36,
      "[control_35]": 37,
      "[control_36]": 38,
      "[control_37]": 39,
      "[control_38]": 40,
      "[control_39]": 41,
      "[control_40]": 42,
      "[control_41]": 43,
      "[control_42]": 44,
      "[control_43]": 45,
      "[control_44]": 46,
      "[control_45]": 47,
      "[control_46]": 48,
      "[control_47]": 49,
      "[control_48]": 50,
      "[control_49]": 51,
      "[control_50]": 52,
      "[control_51]": 53,
      "[control_52]": 54,
      "[control_53]": 55,
      "[control_54]": 56,
      "[control_55]": 57,
      "[control_56]": 58,
      "[control_57]": 59,
      "[control_58]": 60,
      "[control_59]": 61,
      "[control_60]": 62,
      "[control_61]": 63,
      "[control_62]": 64,
      "[control_63]": 65,
      "[control_64]": 66,
      "[control_65]": 67,
      "[control_66]": 68,
      "[control_67]": 69,
      "[control_68]": 70,
      "[control_69]": 71,
      "[control_70]": 72,
      "[control_71]": 73,
      "[control_72]": 74,
      "[control_73]": 75,
      "[control_74]": 76,
      "[control_75]": 77,
      "[control_76]": 78,
      "[control_77]": 79,
      "[control_78]": 80,
      "[control_79]": 81,
      "[control_80]": 82,
      "[control_81]": 83,
      "[control_82]": 84,
      "[control_83]": 85,
      "[control_84]": 86,
      "[control_85]": 87,
      "[control_86]": 88,
      "[control_87]": 89,
      "[control_88]": 90,
      "[control_89]": 91,
      "[control_90]": 92,
      "[control_91]": 93,
      "[control_92]": 94,
      "[control_93]": 95,
      "[control_94]": 96,
      "[control_95]": 97,
      "[control_96]": 98,
      "[control_97]": 99,
      "[control_98]": 100,
      "[control_99]": 101,
      "[control_100]": 102,
      "[control_101]": 103,
      "[control_102]": 104,
      "[control_103]": 105,
      "[control_104]": 106,
      "[control_105]": 107,
      "[control_106]": 108,
      "[control_107]": 109,
      "[control_108]": 110,
      "[control_109]": 111,
      "[control_110]": 112,
      "[control_111]": 113,
      "[control_112]": 114,
      "[control_113]": 115,
      "[control_114]": 116,
      "[control_115]": 117,
      "[control_116]": 118,
      "[control_117]": 119,
      "[control_118]": 120,
      "[control_119]": 121,
      "[control_120]": 122,
      "[control_121]": 123,
      "[control_122]": 124,
      "[control_123]": 125,
      "[control_124]": 126,
      "[control_125]": 127,
      "[control_126]": 128,
      "[control_127]": 129,
      "[control_128]": 130,
      "[control_129]": 131,
      "[control_130]": 132,
      "[control_131]": 133,
      "[control_132]": 134,
      "[control_133]": 135,
      "[control_134]": 136,
      "[control_135]": 137,
      "[control_136]": 138,
      "[control_137]": 139,
      "[control_138]": 140,
      "[control_139]": 141,
      "[control_140]": 142,
      "[control_141]": 143,
      "[control_142]": 144,
      "[control_143]": 145,
      "[control_144]": 146,
      "[control_145]": 147,
      "[control_146]": 148,
      "[control_147]": 149,
      "[control_148]": 150,
      "[control_149]": 151,
      "[control_150]": 152,
      "[control_151]": 153,
      "[control_152]": 154,
      "[control_153]": 155,
      "[control_154]": 156,
      "[control_155]": 157,
      "[control_156]": 158,
      "[control_157]": 159,
      "[control_158]": 160,
      "[control_159]": 161,
      "[control_160]": 162,
      "[control_161]": 163,
      "[control_162]": 164,
      "[control_163]": 165,
      "[control_164]": 166,
      "[control_165]": 167,
      "[control_166]": 168,
      "[control_167]": 169,
      "[control_168]": 170,
      "[control_169]": 171,
      "[control_170]": 172,
      "[control_171]": 173,
      "[control_172]": 174,
      "[control_173]": 175,
      "[control_174]": 176,
      "[control_175]": 177,
      "[control_176]": 178,
      "[control_177]": 179,
      "[control_178]": 180,
      "[control_179]": 181,
      "[control_180]": 182,
      "[control_181]": 183,
      "[control_182]": 184,
      "[control_183]": 185,
      "[control_184]": 186,
      "[control_185]": 187,
      "[control_186]": 188,
      "[control_187]": 189,
      "[control_188]": 190,
      "[control_189]": 191,
      "[control_190]": 192,
      "[control_191]": 193,
      "[control_192]": 194,
      "[control_193]": 195,
      "[control_194]": 196,
      "[control_195]": 197,
      "[control_196]": 198,
      "[control_197]": 199,
      "[control_198]": 200,
      "[control_199]": 201,
      "[control_200]": 202,
      "[control_201]": 203,
      "[control_202]": 204,
      "[control_203]": 205,
      "[control_204]": 206,
      "[control_205]": 207,
      "[control_206]": 208,
      "[control_207]": 209,
      "[control_208]": 210,
      "[control_209]": 211,
      "[control_210]": 212,
      "[control_211]": 213,
      "[control_212]": 214,
      "[control_213]": 215,
      "[control_214]": 216,
      "[control_215]": 217,
      "[control_216]": 218,
      "[control_217]": 219,
      "[control_218]": 220,
      "[control_219]": 221,
      "[control_220]": 222,
      "[control_221]": 223,
      "[control_222]": 224,
      "[control_223]": 225,
      "[control_224]": 226,
      "[control_225]": 227,
      "[control_226]": 228,
      "[control_227]": 229,
      "[control_228]": 230,
      "[control_229]": 231,
      "[control_230]": 232,
      "[control_231]": 233,
      "[control_232]": 234,
      "[control_233]": 235,
      "[control_234]": 236,
      "[control_235]": 237,
      "[control_236]": 238,
      "[control_237]": 239,
      "[control_238]": 240,
      "[control_239]": 241,
      "[control_240]": 242,
      "[control_241]": 243,
      "[control_242]": 244,
      "[control_243]": 245,
      "[control_244]": 246,
      "[control_245]": 247,
      "[control_246]": 248,
      "[control_247]": 249,
      "[control_248]": 250,
      "[control_249]": 251,
      "[control_250]": 252,
      "[control_251]": 253,
      "[control_252]": 254,
      "[control_253]": 255,
      "[control_254]": 256,
      "[control_255]": 257,
      "[control_256]": 258,
      "[control_257]": 259,
      "[control_258]": 260,
      "[control_259]": 261,
      "[control_260]": 262,
      "[control_261]": 263,
      "[control_262]": 264,
      "[control_263]": 265,
      "[control_264]": 266,
      "[control_265]": 267,
      "[control_266]": 268,
      "[control_267]": 269,
      "[control_268]": 270,
      "[control_269]": 271,
      "[control_270]": 272,
      "[control_271]": 273,
      "[control_272]": 274,
      "[control_273]": 275,
      "[control_274]": 276,
      "[control_275]": 277,
      "[control_276]": 278,
      "[control_277]": 279,
      "[control_278]": 280,
      "[control_279]": 281,
      "[control_280]": 282,
      "[control_281]": 283,
      "[control_282]": 284,
      "[control_283]": 285,
      "[control_284]": 286,
      "[control_285]": 287,
      "[control_286]": 288,
      "[control_287]": 289,
      "[control_288]": 290,
      "[control_289]": 291,
      "[control_290]": 292,
      "[control_291]": 293,
      "[control_292]": 294,
      "[control_293]": 295,
      "[control_294]": 296,
      "[control_295]": 297,
      "[control_296]": 298,
      "[control_297]": 299,
      "[control_298]": 300,
      "[control_299]": 301,
      "[control_300]": 302,
      "[control_301]": 303,
      "[control_302]": 304,
      "[control_303]": 305,
      "[control_304]": 306,
      "[control_305]": 307,
      "[control_306]": 308,
      "[control_307]": 309,
      "[control_308]": 310,
      "[control_309]": 311,
      "[control_310]": 312,
      "[control_311]": 313,
      "[control_312]": 314,
      "[control_313]": 315,
      "[control_314]": 316,
      "[control_315]": 317,
      "[control_316]": 318,
      "[control_317]": 319,
      "[control_318]": 320,
      "[control_319]": 321,
      "[control_320]": 322,
      "[control_321]": 323,
      "[control_322]": 324,
      "[control_323]": 325,
      "[control_324]": 326,
      "[control_325]": 327,
      "[control_326]": 328,
      "[control_327]": 329,
      "[control_328]": 330,
      "[control_329]": 331,
      "[control_330]": 332,
      "[control_331]": 333,
      "[control_332]": 334,
      "[control_333]": 335,
      "[control_334]": 336,
      "[control_335]": 337,
      "[control_336]": 338,
      "[control_337]": 339,
      "[control_338]": 340,
      "[control_339]": 341,
      "[control_340]": 342,
      "[control_341]": 343,
      "[control_342]": 344,
      "[control_343]": 345,
      "[control_344]": 346,
      "[control_345]": 347,
      "[control_346]": 348,
      "[control_347]": 349,
      "[control_348]": 350,
      "[control_349]": 351,
      "[control_350]": 352,
      "[control_351]": 353,
      "[control_352]": 354,
      "[control_353]": 355,
      "[control_354]": 356,
      "[control_355]": 357,
      "[control_356]": 358,
      "[control_357]": 359,
      "[control_358]": 360,
      "[control_359]": 361,
      "[control_360]": 362,
      "[control_361]": 363,
      "[control_362]": 364,
      "[control_363]": 365,
      "[control_364]": 366,
      "[control_365]": 367,
      "[control_366]": 368,
      "[control_367]": 369,
      "[control_368]": 370,
      "[control_369]": 371,
      "[control_370]": 372,
      "[control_371]": 373,
      "[control_372]": 374,
      "[control_373]": 375,
      "[control_374]": 376,
      "[control_375]": 377,
      "[control_376]": 378,
      "[control_377]": 379,
      "[control_378]": 380,
      "[control_379]": 381,
      "[control_380]": 382,
      "[control_381]": 383,
      "[control_382]": 384,
      "[control_383]": 385,
      "[control_384]": 386,
      "[control_385]": 387,
      "[control_386]": 388,
      "[control_387]": 389,
      "[control_388]": 390,
      "[control_389]": 391,
      "[control_390]": 392,
      "[control_391]": 393,
      "[control_392]": 394,
      "[control_393]": 395,
      "[control_394]": 396,
      "[control_395]": 397,
      "[control_396]": 398,
      "[control_397]": 399,
      "[control_398]": 400,
      "[control_399]": 401,
      "[control_400]": 402,
      "[control_401]": 403,
      "[control_402]": 404,
      "[control_403]": 405,
      "[control_404]": 406,
      "[control_405]": 407,
      "[control_406]": 408,
      "[control_407]": 409,
      "[control_408]": 410,
      "[control_409]": 411,
      "[control_410]": 412,
      "[control_411]": 413,
      "[control_412]": 414,
      "[control_413]": 415,
      "[control_414]": 416,
      "[control_415]": 417,
      "[control_416]": 418,
      "[control_417]": 419,
      "[control_418]": 420,
      "[control_419]": 421,
      "[control_420]": 422,
      "[control_421]": 423,
      "[control_422]": 424,
      "[control_423]": 425,
      "[control_424]": 426,
      "[control_425]": 427,
      "[control_426]": 428,
      "[control_427]": 429,
      "[control_428]": 430,
      "[control_429]": 431,
      "[control_430]": 432,
      "[control_431]": 433,
      "[control_432]": 434,
      "[control_433]": 435,
      "[control_434]": 436,
      "[control_435]": 437,
      "[control_436]": 438,
      "[control_437]": 439,
      "[control_438]": 440,
      "[control_439]": 441,
      "[control_440]": 442,
      "[control_441]": 443,
      "[control_442]": 444,
      "[control_443]": 445,
      "[control_444]": 446,
      "[control_445]": 447,
      "[control_446]": 448,
      "[control_447]": 449,
      "[control_448]": 450,
      "[control_449]": 451,
      "[control_450]": 452,
      "[control_451]": 453,
      "[control_452]": 454,
      "[control_453]": 455,
      "[control_454]": 456,
      "[control_455]": 457,
      "[control_456]": 458,
      "[control_457]": 459,
      "[control_458]": 460,
      "[control_459]": 461,
      "[control_460]": 462,
      "[control_461]": 463,
      "[control_462]": 464,
      "[control_463]": 465,
      "[control_464]": 466,
      "[control_465]": 467,
      "[control_466]": 468,
      "[control_467]": 469,
      "[control_468]": 470,
      "[control_469]": 471,
      "[control_470]": 472,
      "[control_471]": 473,
      "[control_472]": 474,
      "[control_473]": 475,
      "[control_474]": 476,
      "[control_475]": 477,
      "[control_476]": 478,
      "[control_477]": 479,
      "[control_478]": 480,
      "[control_479]": 481,
      "[control_480]": 482,
      "[control_481]": 483,
      "[control_482]": 484,
      "[control_483]": 485,
      "[control_484]": 486,
      "[control_485]": 487,
      "[control_486]": 488,
      "[control_487]": 489,
      "[control_488]": 490,
      "[control_489]": 491,
      "[control_490]": 492,
      "[control_491]": 493,
      "[control_492]": 494,
      "[control_493]": 495,
      "[control_494]": 496,
      "[control_495]": 497,
      "[control_496]": 498,
      "[control_497]": 499,
      "[control_498]": 500,
      "[control_499]": 501,
      "[control_500]": 502,
      "[control_501]": 503,
      "[control_502]": 504,
      "[control_503]": 505,
      "[control_504]": 506,
      "[control_505]": 507,
      "[control_506]": 508,
      "[control_507]": 509,
      "[control_508]": 510,
      "[control_509]": 511,
      "[control_510]": 512,
      "[control_511]": 513,
      "[control_512]": 514,
      "[control_513]": 515,
      "[control_514]": 516,
      "[control_515]": 517,
      "[control_516]": 518,
      "[control_517]": 519,
      "[control_518]": 520,
      "[control_519]": 521,
      "[control_520]": 522,
      "[control_521]": 523,
      "[control_522]": 524,
      "[control_523]": 525,
      "[control_524]": 526,
      "[control_525]": 527,
      "[control_526]": 528,
      "[control_527]": 529,
      "[control_528]": 530,
      "[control_529]": 531,
      "[control_530]": 532,
      "[control_531]": 533,
      "[control_532]": 534,
      "[control_533]": 535,
      "[control_534]": 536,
      "[control_535]": 537,
      "[control_536]": 538,
      "[control_537]": 539,
      "[control_538]": 540,
      "[control_539]": 541,
      "[control_540]": 542,
      "[control_541]": 543,
      "[control_542]": 544,
      "[control_543]": 545,
      "[control_544]": 546,
      "[control_545]": 547,
      "[control_546]": 548,
      "[control_547]": 549,
      "[control_548]": 550,
      "[control_549]": 551,
      "[control_550]": 552,
      "[control_551]": 553,
      "[control_552]": 554,
      "[control_553]": 555,
      "[control_554]": 556,
      "[control_555]": 557,
      "[control_556]": 558,
      "[control_557]": 559,
      "[control_558]": 560,
      "[control_559]": 561,
      "[control_560]": 562,
      "[control_561]": 563,
      "[control_562]": 564,
      "[control_563]": 565,
      "[control_564]": 566,
      "[control_565]": 567,
      "[control_566]": 568,
      "[control_567]": 569,
      "[control_568]": 570,
      "[control_569]": 571,
      "[control_570]": 572,
      "[control_571]": 573,
      "[control_572]": 574,
      "[control_573]": 575,
      "[control_574]": 576,
      "[control_575]": 577,
      "[control_576]": 578,
      "[control_577]": 579,
      "[control_578]": 580,
      "[control_579]": 581,
      "[control_580]": 582,
      "[control_581]": 583,
      "[control_582]": 584,
      "[control_583]": 585,
      "[control_584]": 586,
      "[control_585]": 587,
      "[control_586]": 588,
      "[control_587]": 589,
      "[control_588]": 590,
      "[control_589]": 591,
      "[control_590]": 592,
      "[control_591]": 593,
      "[control_592]": 594,
      "[control_593]": 595,
      "[control_594]": 596,
      "[control_595]": 597,
      "[control_596]": 598,
      "[control_597]": 599,
      "[control_598]": 600,
      "[control_599]": 601,
      "[control_600]": 602,
      "[control_601]": 603,
      "[control_602]": 604,
      "[control_603]": 605,
      "[control_604]": 606,
      "[control_605]": 607,
      "[control_606]": 608,
      "[control_607]": 609,
      "[control_608]": 610,
      "[control_609]": 611,
      "[control_610]": 612,
      "[control_611]": 613,
      "[control_612]": 614,
      "[control_613]": 615,
      "[control_614]": 616,
      "[control_615]": 617,
      "[control_616]": 618,
      "[control_617]": 619,
      "[control_618]": 620,
      "[control_619]": 621,
      "[control_620]": 622,
      "[control_621]": 623,
      "[control_622]": 624,
      "[control_623]": 625,
      "[control_624]": 626,
      "[control_625]": 627,
      "[control_626]": 628,
      "[control_627]": 629,
      "[control_628]": 630,
      "[control_629]": 631,
      "[control_630]": 632,
      "[control_631]": 633,
      "[control_632]": 634,
      "[control_633]": 635,
      "[control_634]": 636,
      "[control_635]": 637,
      "[control_636]": 638,
      "[control_637]": 639,
      "[control_638]": 640,
      "[control_639]": 641,
      "[control_640]": 642,
      "[control_641]": 643,
      "[control_642]": 644,
      "[control_643]": 645,
      "[control_644]": 646,
      "[control_645]": 647,
      "[control_646]": 648,
      "[control_647]": 649,
      "[control_648]": 650,
      "[control_649]": 651,
      "[control_650]": 652,
      "[control_651]": 653,
      "[control_652]": 654,
      "[control_653]": 655,
      "[control_654]": 656,
      "[control_655]": 657,
      "[control_656]": 658,
      "[control_657]": 659,
      "[control_658]": 660,
      "[control_659]": 661,
      "[control_660]": 662,
      "[control_661]": 663,
      "[control_662]": 664,
      "[control_663]": 665,
      "[control_664]": 666,
      "[control_665]": 667,
      "[control_666]": 668,
      "[control_667]": 669,
      "[control_668]": 670,
      "[control_669]": 671,
      "[control_670]": 672,
      "[control_671]": 673,
      "[control_672]": 674,
      "[control_673]": 675,
      "[control_674]": 676,
      "[control_675]": 677,
      "[control_676]": 678,
      "[control_677]": 679,
      "[control_678]": 680,
      "[control_679]": 681,
      "[control_680]": 682,
      "[control_681]": 683,
      "[control_682]": 684,
      "[control_683]": 685,
      "[control_684]": 686,
      "[control_685]": 687,
      "[control_686]": 688,
      "[control_687]": 689,
      "[control_688]": 690,
      "[control_689]": 691,
      "[control_690]": 692,
      "[control_691]": 693,
      "[control_692]": 694,
      "[control_693]": 695,
      "[control_694]": 696,
      "[control_695]": 697,
      "[control_696]": 698,
      "[control_697]": 699,
      "[control_698]": 700,
      "[control_699]": 701,
      "[control_700]": 702,
      "[control_701]": 703,
      "[control_702]": 704,
      "[control_703]": 705,
      "[control_704]": 706,
      "[control_705]": 707,
      "[control_706]": 708,
      "[control_707]": 709,
      "[control_708]": 710,
      "[control_709]": 711,
      "[control_710]": 712,
      "[control_711]": 713,
      "[control_712]": 714,
      "[control_713]": 715,
      "[control_714]": 716,
      "[control_715]": 717,
      "[control_716]": 718,
      "[control_717]": 719,
      "[control_718]": 720,
      "[control_719]": 721,
      "[control_720]": 722,
      "[control_721]": 723,
      "[control_722]": 724,
      "[control_723]": 725,
      "[control_724]": 726,
      "[control_725]": 727,
      "[control_726]": 728,
      "[control_727]": 729,
      "[control_728]": 730,
      "[control_729]": 731,
      "[control_730]": 732,
      "[control_731]": 733,
      "[control_732]": 734,
      "[control_733]": 735,
      "[control_734]": 736,
      "[control_735]": 737,
      "[control_736]": 738,
      "[control_737]": 739,
      "[control_738]": 740,
      "[control_739]": 741,
      "[control_740]": 742,
      "[control_741]": 743,
      "[control_742]": 744,
      "[control_743]": 745,
      "[control_744]": 746,
      "[control_745]": 747,
      "[control_746]": 748,
      "[control_747]": 749,
      "[control_748]": 750,
      "[control_749]": 751,
      "[control_750]": 752,
      "[control_751]": 753,
      "[control_752]": 754,
      "[control_753]": 755,
      "[control_754]": 756,
      "[control_755]": 757,
      "[control_756]": 758,
      "[control_757]": 759,
      "[control_758]": 760,
      "[control_759]": 761,
      "[control_760]": 762,
      "[control_761]": 763,
      "[control_762]": 764,
      "[control_763]": 765,
      "[control_764]": 766,
      "[control_765]": 767,
      "[control_766]": 768,
      "[control_767]": 769,
      "[control_768]": 770,
      "<0x00>": 771,
      "<0x01>": 772,
      "<0x02>": 773,
      "<0x03>": 774,
      "<0x04>": 775,
      "<0x05>": 776,
      "<0x06>": 777,
      "<0x07>": 778,
      "<0x08>": 779,
      "<0x09>": 780,
      "<0x0A>": 781,
      "<0x0B>": 782,
      "<0x0C>": 783,
      "<0x0D>": 784,
      "<0x0E>": 785,
      "<0x0F>": 786,
      "<0x10>": 787,
      "<0x11>": 788,
      "<0x12>": 789,
      "<0x13>": 790,
      "<0x14>": 791,
      "<0x15>": 792,
      "<0x16>": 793,
      "<0x17>": 794,
      "<0x18>": 795,
      "<0x19>": 796,
      "<0x1A>": 797,
      "<0x1B>": 798,
      "<0x1C>": 799,
      "<0x1D>": 800,
      "<0x1E>": 801,
      "<0x1F>": 802,
      "<0x20>": 803,
      "<0x21>": 804,
      "<0x22>": 805,
      "<0x23>": 806,
      "<0x24>": 807,
      "<0x25>": 808,
      "<0x26>": 809,
      "<0x27>": 810,
      "<0x28>": 811,
      "<0x29>": 812,
      "<0x2A>": 813,
      "<0x2B>": 814,
      "<0x2C>": 815,
      "<0x2D>": 816,
      "<0x2E>": 817,
      "<0x2F>": 818,
      "<0x30>": 819,
      "<0x31>": 820,
      "<0x32>": 821,
      "<0x33>": 822,
      "<0x34>": 823,
      "<0x35>": 824,
      "<0x36>": 825,
      "<0x37>": 826,
      "<0x38>": 827,
      "<0x39>": 828,
      "<0x3A>": 829,
      "<0x3B>": 830,
      "<0x3C>": 831,
      "<0x3D>": 832,
      "<0x3E>": 833,
      "<0x3F>": 834,
      "<0x40>": 835,
      "<0x41>": 836,
      "<0x42>": 837,
      "<0x43>": 838,
      "<0x44>": 839,
      "<0x45>": 840,
      "<0x46>": 841,
      "<0x47>": 842,
      "<0x48>": 843,
      "<0x49>": 844,
      "<0x4A>": 845,
      "<0x4B>": 846,
      "<0x4C>": 847,
      "<0x4D>": 848,
      "<0x4E>": 849,
      "<0x4F>": 850,
      "<0x50>": 851,
      "<0x51>": 852,
      "<0x52>": 853,
      "<0x53>": 854,
      "<0x54>": 855,
      "<0x55>": 856,
      "<0x56>": 857,
      "<0x57>": 858,
      "<0x58>": 859,
      "<0x59>": 860,
      "<0x5A>": 861,
      "<0x5B>": 862,
      "<0x5C>": 863,
      "<0x5D>": 864,
      "<0x5E>": 865,
      "<0x5F>": 866,
      "<0x60>": 867,
      "<0x61>": 868,
      "<0x62>": 869,
      "<0x63>": 870,
      "<0x64>": 871,
      "<0x65>": 872,
      "<0x66>": 873,
      "<0x67>": 874,
      "<0x68>": 875,
      "<0x69>": 876,
      "<0x6A>": 877,
      "<0x6B>": 878,
      "<0x6C>": 879,
      "<0x6D>": 880,
      "<0x6E>": 881,
      "<0x6F>": 882,
      "<0x70>": 883,
      "<0x71>": 884,
      "<0x72>": 885,
      "<0x73>": 886,
      "<0x74>": 887,
      "<0x75>": 888,
      "<0x76>": 889,
      "<0x77>": 890,
      "<0x78>": 891,
      "<0x79>": 892,
      "<0x7A>": 893,
      "<0x7B>": 894,
      "<0x7C>": 895,
      "<0x7D>": 896,
      "<0x7E>": 897,
      "<0x7F>": 898,
      "<0x80>": 899,
      "<0x81>": 900,
      "<0x82>": 901,
      "<0x83>": 902,
      "<0x84>": 903,
      "<0x85>": 904,
      "<0x86>": 905,
      "<0x87>": 906,
      "<0x88>": 907,
      "<0x89>": 908,
      "<0x8A>": 909,
      "<0x8B>": 910,
      "<0x8C>": 911,
      "<0x8D>": 912,
      "<0x8E>": 913,
      "<0x8F>": 914,
      "<0x90>": 915,
      "<0x91>": 916,
      "<0x92>": 917,
      "<0x93>": 918,
      "<0x94>": 919,
      "<0x95>": 920,
      "<0x96>": 921,
      "<0x97>": 922,
      "<0x98>": 923,
      "<0x99>": 924,
      "<0x9A>": 925,
      "<0x9B>": 926,
      "<0x9C>": 927,
      "<0x9D>": 928,
      "<0x9E>": 929,
      "<0x9F>": 930,
      "<0xA0>": 931,
      "<0xA1>": 932,
      "<0xA2>": 933,
      "<0xA3>": 934,
      "<0xA4>": 935,
      "<0xA5>": 936,
      "<0xA6>": 937,
      "<0xA7>": 938,
      "<0xA8>": 939,
      "<0xA9>": 940,
      "<0xAA>": 941,
      "<0xAB>": 942,
      "<0xAC>": 943,
      "<0xAD>": 944,
      "<0xAE>": 945,
      "<0xAF>": 946,
      "<0xB0>": 947,
      "<0xB1>": 948,
      "<0xB2>": 949,
      "<0xB3>": 950,
      "<0xB4>": 951,
      "<0xB5>": 952,
      "<0xB6>": 953,
      "<0xB7>": 954,
      "<0xB8>": 955,
      "<0xB9>": 956,
      "<0xBA>": 957,
      "<0xBB>": 958,
      "<0xBC>": 959,
      "<0xBD>": 960,
      "<0xBE>": 961,
      "<0xBF>": 962,
      "<0xC0>": 963,
      "<0xC1>": 964,
      "<0xC2>": 965,
      "<0xC3>": 966,
      "<0xC4>": 967,
      "<0xC5>": 968,
      "<0xC6>": 969,
      "<0xC7>": 970,
      "<0xC8>": 971,
      "<0xC9>": 972,
      "<0xCA>": 973,
      "<0xCB>": 974,
      "<0xCC>": 975,
      "<0xCD>": 976,
      "<0xCE>": 977,
      "<0xCF>": 978,
      "<0xD0>": 979,
      "<0xD1>": 980,
      "<0xD2>": 981,
      "<0xD3>": 982,
      "<0xD4>": 983,
      "<0xD5>": 984,
      "<0xD6>": 985,
      "<0xD7>": 986,
      "<0xD8>": 987,
      "<0xD9>": 988,
      "<0xDA>": 989,
      "<0xDB>": 990,
      "<0xDC>": 991,
      "<0xDD>": 992,
      "<0xDE>": 993,
      "<0xDF>": 994,
      "<0xE0>": 995,
      "<0xE1>": 996,
      "<0xE2>": 997,
      "<0xE3>": 998,
      "<0xE4>": 999,
      "<0xE5>": 1000,
      "<0xE6>": 1001,
      "<0xE7>": 1002,
      "<0xE8>": 1003,
      "<0xE9>": 1004,
      "<0xEA>": 1005,
      "<0xEB>": 1006,
      "<0xEC>": 1007,
      "<0xED>": 1008,
      "<0xEE>": 1009,
      "<0xEF>": 1010,
      "<0xF0>": 1011,
      "<0xF1>": 1012,
      "<0xF2>": 1013,
      "<0xF3>": 1014,
      "<0xF4>": 1015,
      "<0xF5>": 1016,
      "<0xF6>": 1017,
      "<0xF7>": 1018,
      "<0xF8>": 1019,
      "<0xF9>": 1020,
      "<0xFA>": 1021,
      "<0xFB>": 1022,
      "<0xFC>": 1023,
      "<0xFD>": 1024,
      "<0xFE>": 1025,
      "<0xFF>": 1026,
      "▁▁": 1027,
      "▁▁▁▁": 1028,
      "▁t": 1029,
      "in": 1030,
      "er": 1031,
      "▁a": 1032,
      "he": 1033,
      "on": 1034,
      "re": 1035,
      "▁s": 1036,
      "en": 1037,
      "at": 1038,
      "or": 1039,
      "▁the": 1040,
      "▁▁▁▁▁▁▁▁": 1041,
      "es": 1042,
      "▁w": 1043,
      "an": 1044,
      "▁c": 1045,
      "is": 1046,
      "it": 1047,
      "ou": 1048,
      "▁d": 1049,
      "al": 1050,
      "ar": 1051,
      "▁p": 1052,
      "▁f": 1053,
      "ed": 1054,
      "▁b": 1055,
      "ing": 1056,
      "▁o": 1057,
      "▁m": 1058,
      "le": 1059,
      "nd": 1060,
      "as": 1061,
      "ic": 1062,
      "▁h": 1063,
      "ion": 1064,
      "▁in": 1065,
      "▁to": 1066,
      "et": 1067,
      "om": 1068,
      "el": 1069,
      "▁of": 1070,
      "st": 1071,
      "▁and": 1072,
      "▁l": 1073,
      "▁th": 1074,
      "▁n": 1075,
      "ent": 1076,
      "il": 1077,
      "ct": 1078,
      "ro": 1079,
      "▁re": 1080,
      "id": 1081,
      "am": 1082,
      "▁I": 1083,
      "ad": 1084,
      "▁e": 1085,
      "▁S": 1086,
      "▁g": 1087,
      "▁T": 1088,
      "im": 1089,
      "ot": 1090,
      "ac": 1091,
      "ur": 1092,
      "▁(": 1093,
      "ig": 1094,
      "▁=": 1095,
      "ol": 1096,
      "ut": 1097,
      "▁A": 1098,
      "se": 1099,
      "▁u": 1100,
      "ve": 1101,
      "▁C": 1102,
      "if": 1103,
      "ow": 1104,
      "▁y": 1105,
      "ch": 1106,
      "ay": 1107,
      "▁de": 1108,
      "▁st": 1109,
      "▁|": 1110,
      "ver": 1111,
      ");": 1112,
      "▁\"": 1113,
      "ly": 1114,
      "▁be": 1115,
      "**": 1116,
      "▁is": 1117,
      "od": 1118,
      "▁M": 1119,
      "ation": 1120,
      "ul": 1121,
      "▁for": 1122,
      "▁▁▁▁▁": 1123,
      "▁on": 1124,
      "ag": 1125,
      "ce": 1126,
      "▁▁▁▁▁▁▁▁▁▁▁▁▁▁▁▁": 1127,
      "ter": 1128,
      "ir": 1129,
      "th": 1130,
      "▁v": 1131,
      "qu": 1132,
      "▁B": 1133,
      "em": 1134,
      "▁P": 1135,
      "▁you": 1136,
      "▁that": 1137,
      "un": 1138,
      "▁{": 1139,
      "ith": 1140,
      "ri": 1141,
      "est": 1142,
      "ab": 1143,
      "--": 1144,
      "ap": 1145,
      "▁it": 1146,
      "▁con": 1147,
      "ate": 1148,
      "us": 1149,
      "▁H": 1150,
      "um": 1151,
      "▁D": 1152,
      "os": 1153,
      "pe": 1154,
      "▁-": 1155,
      "▁wh": 1156,
      "▁al": 1157,
      "▁as": 1158,
      "and": 1159,
      "ist": 1160,
      "▁L": 1161,
      "▁W": 1162,
      "▁with": 1163,
      "▁an": 1164,
      "ere": 1165,
      "▁*": 1166,
      "▁R": 1167,
      "▁he": 1168,
      "▁F": 1169,
      "oc": 1170,
      "▁was": 1171,
      "ers": 1172,
      "ke": 1173,
      "out": 1174,
      "ht": 1175,
      "▁r": 1176,
      "ess": 1177,
      "op": 1178,
      "res": 1179,
      "ie": 1180,
      "▁E": 1181,
      "▁\\": 1182,
      "▁The": 1183,
      "end": 1184,
      "ld": 1185,
      "▁N": 1186,
      "ort": 1187,
      "▁G": 1188,
      "//": 1189,
      "▁#": 1190,
      "our": 1191,
      "te": 1192,
      "ill": 1193,
      "ain": 1194,
      "▁se": 1195,
      "▁▁▁▁▁▁": 1196,
      "▁$": 1197,
      "▁pro": 1198,
      "ore": 1199,
      "▁com": 1200,
      "ame": 1201,
      "tr": 1202,
      "▁ne": 1203,
      "rom": 1204,
      "ub": 1205,
      "▁at": 1206,
      "▁ex": 1207,
      "ant": 1208,
      "ue": 1209,
      "▁or": 1210,
      "▁}": 1211,
      "art": 1212,
      "ction": 1213,
      "▁k": 1214,
      "pt": 1215,
      "nt": 1216,
      "iv": 1217,
      "de": 1218,
      "▁O": 1219,
      "pl": 1220,
      "urn": 1221,
      "ight": 1222,
      "all": 1223,
      "▁this": 1224,
      "ser": 1225,
      "ave": 1226,
      "▁not": 1227,
      "▁are": 1228,
      "▁j": 1229,
      "▁le": 1230,
      "iz": 1231,
      "▁'": 1232,
      "age": 1233,
      "ment": 1234,
      "▁tr": 1235,
      "ack": 1236,
      "ust": 1237,
      "()": 1238,
      "->": 1239,
      "ity": 1240,
      "ine": 1241,
      "ould": 1242,
      "▁J": 1243,
      "og": 1244,
      "▁from": 1245,
      "▁we": 1246,
      "ell": 1247,
      "▁sh": 1248,
      "▁en": 1249,
      "ure": 1250,
      "port": 1251,
      "▁ch": 1252,
      "ne": 1253,
      "▁by": 1254,
      "per": 1255,
      "ard": 1256,
      "ass": 1257,
      "ge": 1258,
      "ak": 1259,
      "are": 1260,
      "ok": 1261,
      "av": 1262,
      "ive": 1263,
      "ff": 1264,
      "ies": 1265,
      "ath": 1266,
      "turn": 1267,
      "▁U": 1268,
      "int": 1269,
      "----": 1270,
      "▁im": 1271,
      "ost": 1272,
      "ial": 1273,
      "▁have": 1274,
      "ind": 1275,
      "ip": 1276,
      "ans": 1277,
      "xt": 1278,
      "▁do": 1279,
      "cl": 1280,
      "▁if": 1281,
      "con": 1282,
      "ia": 1283,
      "▁his": 1284,
      "ult": 1285,
      "rou": 1286,
      "▁su": 1287,
      "ra": 1288,
      "▁un": 1289,
      "able": 1290,
      "▁<": 1291,
      "▁K": 1292,
      "ome": 1293,
      "▁qu": 1294,
      "get": 1295,
      "▁me": 1296,
      "ast": 1297,
      "ect": 1298,
      "▁##": 1299,
      "to": 1300,
      "▁cl": 1301,
      "▁ab": 1302,
      "ice": 1303,
      "ire": 1304,
      "ber": 1305,
      "one": 1306,
      "ich": 1307,
      "hen": 1308,
      "▁can": 1309,
      "▁Th": 1310,
      "▁la": 1311,
      "▁all": 1312,
      "ime": 1313,
      "ile": 1314,
      "ide": 1315,
      "\",": 1316,
      "▁pl": 1317,
      "▁V": 1318,
      "ru": 1319,
      "orm": 1320,
      "▁had": 1321,
      "ud": 1322,
      "ase": 1323,
      "ord": 1324,
      "),": 1325,
      "▁▁▁▁▁▁▁▁▁▁▁▁": 1326,
      "▁her": 1327,
      "▁In": 1328,
      "ace": 1329,
      "▁but": 1330,
      "ata": 1331,
      "::": 1332,
      "****": 1333,
      "ong": 1334,
      "▁&": 1335,
      "..": 1336,
      "▁▁▁▁▁▁▁▁▁▁▁▁▁": 1337,
      "ite": 1338,
      "ype": 1339,
      "act": 1340,
      "ode": 1341,
      "▁your": 1342,
      "▁out": 1343,
      "▁go": 1344,
      "lic": 1345,
      "ally": 1346,
      "▁so": 1347,
      "ork": 1348,
      "au": 1349,
      "▁up": 1350,
      "▁_": 1351,
      "ll": 1352,
      "==": 1353,
      "▁my": 1354,
      "pp": 1355,
      "cc": 1356,
      "▁//": 1357,
      "▁they": 1358,
      "gh": 1359,
      "▁us": 1360,
      "ib": 1361,
      "ions": 1362,
      "ach": 1363,
      "ens": 1364,
      "▁ar": 1365,
      "ob": 1366,
      "elf": 1367,
      "ook": 1368,
      "ated": 1369,
      "ang": 1370,
      "ign": 1371,
      "▁return": 1372,
      "▁res": 1373,
      "ck": 1374,
      "ous": 1375,
      "ст": 1376,
      ").": 1377,
      "▁п": 1378,
      ".\"": 1379,
      "на": 1380,
      "▁i": 1381,
      "ail": 1382,
      "ep": 1383,
      "▁ad": 1384,
      "ance": 1385,
      "(\"": 1386,
      "▁**": 1387,
      "ther": 1388,
      "ake": 1389,
      "▁will": 1390,
      "▁comp": 1391,
      "▁one": 1392,
      "▁get": 1393,
      "ov": 1394,
      "▁Y": 1395,
      "ary": 1396,
      "ock": 1397,
      "▁she": 1398,
      "che": 1399,
      "ft": 1400,
      "▁new": 1401,
      "▁des": 1402,
      "▁li": 1403,
      "ence": 1404,
      "▁sa": 1405,
      "ress": 1406,
      "▁el": 1407,
      "▁und": 1408,
      "eg": 1409,
      "fer": 1410,
      "ry": 1411,
      "ear": 1412,
      "ose": 1413,
      "very": 1414,
      "',": 1415,
      "▁+": 1416,
      "▁в": 1417,
      "▁He": 1418,
      "ublic": 1419,
      "▁their": 1420,
      "ize": 1421,
      "▁were": 1422,
      "ink": 1423,
      "own": 1424,
      "In": 1425,
      "{\\": 1426,
      "▁has": 1427,
      "▁per": 1428,
      "▁It": 1429,
      "▁St": 1430,
      "her": 1431,
      "ject": 1432,
      "ра": 1433,
      "ild": 1434,
      "so": 1435,
      "▁sp": 1436,
      "ни": 1437,
      "du": 1438,
      "row": 1439,
      "alue": 1440,
      "set": 1441,
      "form": 1442,
      "com": 1443,
      "▁man": 1444,
      "ont": 1445,
      "ull": 1446,
      "▁cont": 1447,
      "▁more": 1448,
      "ick": 1449,
      "▁would": 1450,
      "▁ev": 1451,
      "▁about": 1452,
      "ition": 1453,
      "▁z": 1454,
      "ound": 1455,
      "ree": 1456,
      "▁Ch": 1457,
      "▁which": 1458,
      "io": 1459,
      "();": 1460,
      "▁who": 1461,
      "err": 1462,
      "ory": 1463,
      "ount": 1464,
      "ations": 1465,
      "▁с": 1466,
      "ring": 1467,
      "</": 1468,
      "▁fe": 1469,
      "ко": 1470,
      "но": 1471,
      "▁dis": 1472,
      "ma": 1473,
      "▁them": 1474,
      "▁any": 1475,
      "▁no": 1476,
      "--------": 1477,
      "▁pre": 1478,
      "▁te": 1479,
      "▁ro": 1480,
      "▁him": 1481,
      "▁:": 1482,
      "up": 1483,
      "▁int": 1484,
      "▁ag": 1485,
      "St": 1486,
      "ark": 1487,
      "ex": 1488,
      "ph": 1489,
      "ient": 1490,
      "ely": 1491,
      "▁pr": 1492,
      "ER": 1493,
      "▁import": 1494,
      "▁time": 1495,
      "ро": 1496,
      "pro": 1497,
      "User": 1498,
      "lo": 1499,
      "▁/": 1500,
      "▁[": 1501,
      "ors": 1502,
      "=\"": 1503,
      "▁there": 1504,
      "▁like": 1505,
      "old": 1506,
      "▁when": 1507,
      "vers": 1508,
      "▁some": 1509,
      "ings": 1510,
      "))": 1511,
      "▁part": 1512,
      "ical": 1513,
      "▁fun": 1514,
      "▁kn": 1515,
      "ays": 1516,
      "ier": 1517,
      "▁been": 1518,
      "ove": 1519,
      "▁sc": 1520,
      "ian": 1521,
      "▁over": 1522,
      "iel": 1523,
      "▁▁▁▁▁▁▁▁▁▁": 1524,
      "▁pe": 1525,
      "rib": 1526,
      "put": 1527,
      "ec": 1528,
      "eth": 1529,
      "aram": 1530,
      "app": 1531,
      "▁–": 1532,
      "▁stat": 1533,
      "pon": 1534,
      "▁what": 1535,
      "ption": 1536,
      "we": 1537,
      "ade": 1538,
      "▁work": 1539,
      "text": 1540,
      "▁said": 1541,
      "▁###": 1542,
      "IN": 1543,
      "▁just": 1544,
      "irst": 1545,
      "▁into": 1546,
      "▁const": 1547,
      "ource": 1548,
      "tt": 1549,
      "ps": 1550,
      "pr": 1551,
      "erv": 1552,
      "itt": 1553,
      "ug": 1554,
      "_{": 1555,
      "ents": 1556,
      "ish": 1557,
      "ener": 1558,
      "▁inter": 1559,
      "ple": 1560,
      "oll": 1561,
      "mer": 1562,
      "ater": 1563,
      "ool": 1564,
      "ef": 1565,
      "▁public": 1566,
      "▁other": 1567,
      "ре": 1568,
      "▁def": 1569,
      "▁@": 1570,
      "го": 1571,
      "oint": 1572,
      "▁off": 1573,
      "oid": 1574,
      "return": 1575,
      "▁set": 1576,
      "wo": 1577,
      "fter": 1578,
      "sh": 1579,
      "********": 1580,
      "▁our": 1581,
      "riv": 1582,
      "iss": 1583,
      "▁We": 1584,
      "ng": 1585,
      "▁ob": 1586,
      "ss": 1587,
      "gr": 1588,
      "▁than": 1589,
      "pect": 1590,
      "ied": 1591,
      "sc": 1592,
      "iew": 1593,
      "der": 1594,
      "yst": 1595,
      "ev": 1596,
      "▁could": 1597,
      "ann": 1598,
      "enc": 1599,
      "ON": 1600,
      "ix": 1601,
      "anc": 1602,
      "▁also": 1603,
      "reat": 1604,
      "▁am": 1605,
      "▁bec": 1606,
      "▁и": 1607,
      "ual": 1608,
      "pec": 1609,
      "▁.": 1610,
      "▁bl": 1611,
      "lect": 1612,
      "ople": 1613,
      "ys": 1614,
      "▁gr": 1615,
      "ict": 1616,
      "ik": 1617,
      "tring": 1618,
      "▁This": 1619,
      "▁back": 1620,
      "▁о": 1621,
      "▁fin": 1622,
      "atch": 1623,
      "Con": 1624,
      "('": 1625,
      "erm": 1626,
      "▁==": 1627,
      "__": 1628,
      "name": 1629,
      ",\"": 1630,
      "▁did": 1631,
      "ise": 1632,
      "▁only": 1633,
      "ruct": 1634,
      "les": 1635,
      "▁then": 1636,
      "ause": 1637,
      "ва": 1638,
      "▁its": 1639,
      "rit": 1640,
      "▁know": 1641,
      "ield": 1642,
      "▁class": 1643,
      "▁>": 1644,
      "▁em": 1645,
      "▁$\\": 1646,
      "▁year": 1647,
      "wn": 1648,
      "},": 1649,
      "▁del": 1650,
      "ale": 1651,
      "ty": 1652,
      "fig": 1653,
      "sp": 1654,
      "hed": 1655,
      "round": 1656,
      "ew": 1657,
      "▁di": 1658,
      "▁der": 1659,
      "ри": 1660,
      "red": 1661,
      "this": 1662,
      "let": 1663,
      "RE": 1664,
      "ax": 1665,
      "fr": 1666,
      "essage": 1667,
      "ough": 1668,
      "▁comm": 1669,
      "fo": 1670,
      "uch": 1671,
      "oy": 1672,
      "▁people": 1673,
      "ystem": 1674,
      "▁first": 1675,
      "▁function": 1676,
      "ange": 1677,
      "▁how": 1678,
      "▁et": 1679,
      "ah": 1680,
      "▁look": 1681,
      "то": 1682,
      "und": 1683,
      "▁under": 1684,
      "ка": 1685,
      "▁!": 1686,
      "ray": 1687,
      "ST": 1688,
      "ific": 1689,
      "ли": 1690,
      "read": 1691,
      "▁bet": 1692,
      "ious": 1693,
      "arg": 1694,
      "▁need": 1695,
      "math": 1696,
      "▁на": 1697,
      "ert": 1698,
      "▁op": 1699,
      "▁acc": 1700,
      "Pro": 1701,
      "▁est": 1702,
      "▁Un": 1703,
      "▁ent": 1704,
      "▁rec": 1705,
      "▁use": 1706,
      "ен": 1707,
      "▁par": 1708,
      "az": 1709,
      "▁д": 1710,
      "▁Wh": 1711,
      "self": 1712,
      "▁ke": 1713,
      "та": 1714,
      "▁want": 1715,
      "▁end": 1716,
      "▁don": 1717,
      "ek": 1718,
      "ren": 1719,
      "Name": 1720,
      "▁=>": 1721,
      "▁app": 1722,
      "▁que": 1723,
      "igh": 1724,
      "▁bu": 1725,
      "equ": 1726,
      "vel": 1727,
      "▁act": 1728,
      "cre": 1729,
      "AT": 1730,
      "▁var": 1731,
      "cess": 1732,
      "====": 1733,
      "Ex": 1734,
      "▁add": 1735,
      "▁mod": 1736,
      "ung": 1737,
      "▁where": 1738,
      "ning": 1739,
      "▁fl": 1740,
      "als": 1741,
      "tern": 1742,
      "}}": 1743,
      "▁Al": 1744,
      "▁pos": 1745,
      "ank": 1746,
      "▁ap": 1747,
      "eng": 1748,
      "▁“": 1749,
      "ble": 1750,
      "▁reg": 1751,
      "^{": 1752,
      "▁She": 1753,
      "▁*/": 1754,
      "ude": 1755,
      "add": 1756,
      "▁two": 1757,
      "▁col": 1758,
      "▁sm": 1759,
      "air": 1760,
      "▁may": 1761,
      "fore": 1762,
      "▁You": 1763,
      "rough": 1764,
      "▁che": 1765,
      "▁att": 1766,
      "oth": 1767,
      "ла": 1768,
      "▁co": 1769,
      "ates": 1770,
      "▁rem": 1771,
      "ood": 1772,
      "Type": 1773,
      "led": 1774,
      "ful": 1775,
      "▁self": 1776,
      "of": 1777,
      "▁Ar": 1778,
      "que": 1779,
      "▁every": 1780,
      "ref": 1781,
      "The": 1782,
      "▁And": 1783,
      "▁rel": 1784,
      "OR": 1785,
      "Id": 1786,
      "▁even": 1787,
      "EN": 1788,
      "▁hand": 1789,
      "ait": 1790,
      "▁should": 1791,
      "▁after": 1792,
      "▁dif": 1793,
      "ght": 1794,
      "ife": 1795,
      "ator": 1796,
      "ash": 1797,
      "ribut": 1798,
      "umber": 1799,
      "▁see": 1800,
      "ms": 1801,
      "▁call": 1802,
      "yn": 1803,
      "dd": 1804,
      "▁es": 1805,
      "▁make": 1806,
      "other": 1807,
      "▁—": 1808,
      "\");": 1809,
      "str": 1810,
      "▁long": 1811,
      "lement": 1812,
      "▁wor": 1813,
      "its": 1814,
      "▁If": 1815,
      "alse": 1816,
      "ль": 1817,
      "ward": 1818,
      "▁по": 1819,
      "val": 1820,
      "ons": 1821,
      "▁Z": 1822,
      "▁now": 1823,
      "data": 1824,
      "amp": 1825,
      "ense": 1826,
      "▁through": 1827,
      "▁down": 1828,
      "att": 1829,
      "▁static": 1830,
      "ics": 1831,
      "##": 1832,
      "pos": 1833,
      "▁void": 1834,
      "aw": 1835,
      "oun": 1836,
      "▁way": 1837,
      "ible": 1838,
      "vent": 1839,
      "ower": 1840,
      "▁think": 1841,
      "ts": 1842,
      "*/": 1843,
      "▁again": 1844,
      "ating": 1845,
      "те": 1846,
      "ner": 1847,
      "▁most": 1848,
      "line": 1849,
      "ym": 1850,
      "▁sub": 1851,
      "erson": 1852,
      "▁requ": 1853,
      "AL": 1854,
      "AR": 1855,
      "abel": 1856,
      "ond": 1857,
      "));": 1858,
      "▁Se": 1859,
      "▁But": 1860,
      "alk": 1861,
      "▁An": 1862,
      "new": 1863,
      "▁because": 1864,
      "ger": 1865,
      "ular": 1866,
      "roup": 1867,
      "ta": 1868,
      "...": 1869,
      "▁cons": 1870,
      "▁right": 1871,
      "▁fr": 1872,
      "be": 1873,
      "ily": 1874,
      "ки": 1875,
      "▁ph": 1876,
      "ead": 1877,
      "?\"": 1878,
      "▁gu": 1879,
      "▁else": 1880,
      "▁som": 1881,
      "rent": 1882,
      "co": 1883,
      "ement": 1884,
      "▁str": 1885,
      "ault": 1886,
      "▁з": 1887,
      "ло": 1888,
      "sert": 1889,
      "var": 1890,
      "type": 1891,
      "▁Com": 1892,
      "ле": 1893,
      "ins": 1894,
      "me": 1895,
      "way": 1896,
      "ident": 1897,
      "▁prov": 1898,
      "▁м": 1899,
      "▁true": 1900,
      "▁Pro": 1901,
      "fl": 1902,
      "▁sl": 1903,
      "▁As": 1904,
      "}\\": 1905,
      "ID": 1906,
      "ues": 1907,
      "▁inst": 1908,
      "▁name": 1909,
      "ox": 1910,
      "▁)": 1911,
      "li": 1912,
      "ames": 1913,
      "Res": 1914,
      "▁sur": 1915,
      "param": 1916,
      "▁start": 1917,
      "aj": 1918,
      "SE": 1919,
      "ask": 1920,
      "IT": 1921,
      "String": 1922,
      "▁ass": 1923,
      "▁play": 1924,
      "ting": 1925,
      "ton": 1926,
      "▁before": 1927,
      "▁pol": 1928,
      "arch": 1929,
      "▁well": 1930,
      "Com": 1931,
      "any": 1932,
      "olog": 1933,
      "▁err": 1934,
      "▁these": 1935,
      "ars": 1936,
      "eb": 1937,
      "▁br": 1938,
      "▁incl": 1939,
      "▁hel": 1940,
      "ern": 1941,
      "ody": 1942,
      "во": 1943,
      "▁ind": 1944,
      "----------------": 1945,
      "▁data": 1946,
      "▁good": 1947,
      "LE": 1948,
      "],": 1949,
      "▁av": 1950,
      "▁ac": 1951,
      "ider": 1952,
      "не": 1953,
      "▁Q": 1954,
      "▁min": 1955,
      "▁much": 1956,
      "ci": 1957,
      "els": 1958,
      "▁cur": 1959,
      "▁value": 1960,
      "ery": 1961,
      "uf": 1962,
      "▁loc": 1963,
      "reak": 1964,
      "ative": 1965,
      "imes": 1966,
      "Cl": 1967,
      "▁,": 1968,
      "▁ser": 1969,
      "▁die": 1970,
      "▁trans": 1971,
      "▁result": 1972,
      "ext": 1973,
      "▁aut": 1974,
      "land": 1975,
      "▁&&": 1976,
      "Ch": 1977,
      "ten": 1978,
      "}$": 1979,
      "▁type": 1980,
      "cond": 1981,
      "ices": 1982,
      "▁very": 1983,
      "▁own": 1984,
      "▁fil": 1985,
      "ities": 1986,
      "▁produ": 1987,
      "▁read": 1988,
      "▁form": 1989,
      "▁case": 1990,
      "ather": 1991,
      "ти": 1992,
      "да": 1993,
      "ер": 1994,
      "Th": 1995,
      "aut": 1996,
      "▁spec": 1997,
      "ij": 1998,
      "bl": 1999,
      "ility": 2000,
      "▁é": 2001,
      "▁er": 2002,
      "▁does": 2003,
      "▁here": 2004,
      "the": 2005,
      "ures": 2006,
      "▁%": 2007,
      "min": 2008,
      "▁null": 2009,
      "rap": 2010,
      "\")": 2011,
      "rr": 2012,
      "List": 2013,
      "right": 2014,
      "▁User": 2015,
      "UL": 2016,
      "ational": 2017,
      "▁being": 2018,
      "AN": 2019,
      "sk": 2020,
      "▁car": 2021,
      "ole": 2022,
      "▁dist": 2023,
      "plic": 2024,
      "ollow": 2025,
      "▁pres": 2026,
      "▁such": 2027,
      "ream": 2028,
      "ince": 2029,
      "gan": 2030,
      "▁For": 2031,
      "\":": 2032,
      "son": 2033,
      "rivate": 2034,
      "▁years": 2035,
      "▁serv": 2036,
      "▁made": 2037,
      "def": 2038,
      ";\r": 2039,
      "▁gl": 2040,
      "▁bel": 2041,
      "▁list": 2042,
      "▁cor": 2043,
      "▁det": 2044,
      "ception": 2045,
      "egin": 2046,
      "▁б": 2047,
      "▁char": 2048,
      "trans": 2049,
      "▁fam": 2050,
      "▁!=": 2051,
      "ouse": 2052,
      "▁dec": 2053,
      "ica": 2054,
      "▁many": 2055,
      "aking": 2056,
      "▁à": 2057,
      "▁sim": 2058,
      "ages": 2059,
      "uff": 2060,
      "ased": 2061,
      "man": 2062,
      "▁Sh": 2063,
      "iet": 2064,
      "irect": 2065,
      "▁Re": 2066,
      "▁differ": 2067,
      "▁find": 2068,
      "ethod": 2069,
      "▁\r": 2070,
      "ines": 2071,
      "▁inv": 2072,
      "▁point": 2073,
      "▁They": 2074,
      "▁used": 2075,
      "ctions": 2076,
      "▁still": 2077,
      "ió": 2078,
      "ined": 2079,
      "▁while": 2080,
      "It": 2081,
      "ember": 2082,
      "▁say": 2083,
      "▁help": 2084,
      "▁cre": 2085,
      "▁x": 2086,
      "▁Tr": 2087,
      "ument": 2088,
      "▁sk": 2089,
      "ought": 2090,
      "ually": 2091,
      "message": 2092,
      "▁Con": 2093,
      "▁mon": 2094,
      "ared": 2095,
      "work": 2096,
      "):": 2097,
      "ister": 2098,
      "arn": 2099,
      "ized": 2100,
      "Data": 2101,
      "orn": 2102,
      "▁head": 2103,
      "DE": 2104,
      "▁Le": 2105,
      "▁person": 2106,
      "ments": 2107,
      "ength": 2108,
      "▁false": 2109,
      "▁med": 2110,
      "▁De": 2111,
      "ache": 2112,
      "ited": 2113,
      "▁let": 2114,
      "▁show": 2115,
      "▁same": 2116,
      "uss": 2117,
      "▁gener": 2118,
      "▁у": 2119,
      "cur": 2120,
      "▁real": 2121,
      "ced": 2122,
      "\">": 2123,
      "struct": 2124,
      "begin": 2125,
      "cept": 2126,
      "▁bo": 2127,
      "ired": 2128,
      "▁Fr": 2129,
      "▁stud": 2130,
      "dev": 2131,
      "Ar": 2132,
      "(\\": 2133,
      "▁Cl": 2134,
      "ween": 2135,
      "▁too": 2136,
      "▁test": 2137,
      "▁day": 2138,
      "oh": 2139,
      "▁follow": 2140,
      "ature": 2141,
      "ze": 2142,
      "ien": 2143,
      "reg": 2144,
      "ces": 2145,
      "uring": 2146,
      "amb": 2147,
      "ina": 2148,
      "cri": 2149,
      "▁ed": 2150,
      "SS": 2151,
      "uck": 2152,
      "▁/*": 2153,
      "CT": 2154,
      "▁There": 2155,
      "▁take": 2156,
      "par": 2157,
      "ule": 2158,
      "cal": 2159,
      "for": 2160,
      "****************": 2161,
      "source": 2162,
      "▁those": 2163,
      "col": 2164,
      "▁eff": 2165,
      "mod": 2166,
      "cont": 2167,
      "}{": 2168,
      "▁around": 2169,
      "press": 2170,
      "by": 2171,
      "▁going": 2172,
      "ponse": 2173,
      "▁С": 2174,
      "▁line": 2175,
      "date": 2176,
      "code": 2177,
      "['": 2178,
      "▁life": 2179,
      "ason": 2180,
      "▁using": 2181,
      "▁val": 2182,
      "▁du": 2183,
      "yp": 2184,
      "▁▁▁▁▁▁▁▁▁▁▁▁▁▁": 2185,
      "▁On": 2186,
      "▁found": 2187,
      "olut": 2188,
      "']": 2189,
      "arent": 2190,
      "▁string": 2191,
      "▁met": 2192,
      "▁wr": 2193,
      "ush": 2194,
      "string": 2195,
      "size": 2196,
      "▁ver": 2197,
      "▁each": 2198,
      "value": 2199,
      "▁last": 2200,
      "▁got": 2201,
      "ven": 2202,
      "back": 2203,
      "Set": 2204,
      "ey": 2205,
      "rol": 2206,
      "▁cr": 2207,
      "thing": 2208,
      "ret": 2209,
      "és": 2210,
      "ism": 2211,
      "▁between": 2212,
      "Ob": 2213,
      "ething": 2214,
      "mp": 2215,
      "▁lo": 2216,
      "ats": 2217,
      "▁New": 2218,
      "ви": 2219,
      "ado": 2220,
      "dex": 2221,
      "ди": 2222,
      "▁pass": 2223,
      "wh": 2224,
      "▁den": 2225,
      "Get": 2226,
      "apt": 2227,
      "▁ask": 2228,
      "▁sup": 2229,
      "Value": 2230,
      "ны": 2231,
      "▁try": 2232,
      "lation": 2233,
      "day": 2234,
      "ness": 2235,
      "ets": 2236,
      "▁exper": 2237,
      "Tr": 2238,
      "▁Mar": 2239,
      "serv": 2240,
      "br": 2241,
      "▁number": 2242,
      "inal": 2243,
      "cent": 2244,
      "/*": 2245,
      "not": 2246,
      "ional": 2247,
      "▁final": 2248,
      "')": 2249,
      "▁run": 2250,
      "over": 2251,
      "▁never": 2252,
      "uc": 2253,
      "▁high": 2254,
      "yle": 2255,
      "▁ins": 2256,
      "▁best": 2257,
      "ittle": 2258,
      "ric": 2259,
      "▁sign": 2260,
      "▁dem": 2261,
      "iness": 2262,
      "gy": 2263,
      "▁war": 2264,
      "ished": 2265,
      "▁giv": 2266,
      "key": 2267,
      "▁X": 2268,
      "($": 2269,
      "▁child": 2270,
      "less": 2271,
      "ways": 2272,
      "incl": 2273,
      "rop": 2274,
      "raw": 2275,
      "://": 2276,
      "▁«": 2277,
      "no": 2278,
      "indow": 2279,
      "fe": 2280,
      "riend": 2281,
      "▁les": 2282,
      "▁los": 2283,
      "file": 2284,
      "formation": 2285,
      "ccess": 2286,
      "▁В": 2287,
      "na": 2288,
      "▁il": 2289,
      "ision": 2290,
      "ler": 2291,
      "▁art": 2292,
      "Cont": 2293,
      "▁world": 2294,
      "▁turn": 2295,
      "▁really": 2296,
      "▁Ex": 2297,
      "ма": 2298,
      "▁П": 2299,
      "ters": 2300,
      "arget": 2301,
      "Err": 2302,
      "▁happ": 2303,
      "time": 2304,
      "▁So": 2305,
      "div": 2306,
      "▁didn": 2307,
      "ada": 2308,
      "oot": 2309,
      "})": 2310,
      "▁sch": 2311,
      "▁cle": 2312,
      "▁something": 2313,
      "().": 2314,
      "▁cour": 2315,
      "ever": 2316,
      "ants": 2317,
      "▁?": 2318,
      "To": 2319,
      "▁`": 2320,
      "try": 2321,
      "ux": 2322,
      "ais": 2323,
      "ross": 2324,
      "hip": 2325,
      "▁rep": 2326,
      "label": 2327,
      "▁both": 2328,
      "*,": 2329,
      "ott": 2330,
      "ми": 2331,
      "ane": 2332,
      "▁open": 2333,
      "ww": 2334,
      "▁come": 2335,
      "▁ext": 2336,
      "rem": 2337,
      "_{\\": 2338,
      "▁old": 2339,
      "ched": 2340,
      "._": 2341,
      "ME": 2342,
      "ify": 2343,
      "gg": 2344,
      "Col": 2345,
      "view": 2346,
      "▁bus": 2347,
      "▁must": 2348,
      "▁different": 2349,
      "log": 2350,
      "ists": 2351,
      "roll": 2352,
      "ai": 2353,
      "▁за": 2354,
      "▁system": 2355,
      "ivers": 2356,
      "atus": 2357,
      "ote": 2358,
      "med": 2359,
      "].": 2360,
      "akes": 2361,
      "RO": 2362,
      "▁cent": 2363,
      "gram": 2364,
      "▁private": 2365,
      "▁great": 2366,
      "\";": 2367,
      "opy": 2368,
      "▁feel": 2369,
      "▁How": 2370,
      "////": 2371,
      "IC": 2372,
      "▁dr": 2373,
      "ains": 2374,
      "lock": 2375,
      "En": 2376,
      "▁Sch": 2377,
      "▁mat": 2378,
      "▁home": 2379,
      "perty": 2380,
      "test": 2381,
      "loc": 2382,
      "▁wom": 2383,
      "sw": 2384,
      "arly": 2385,
      "▁En": 2386,
      "▁ко": 2387,
      "den": 2388,
      "ста": 2389,
      "▁а": 2390,
      "eter": 2391,
      "▁includ": 2392,
      "ULL": 2393,
      "▁mem": 2394,
      "▁po": 2395,
      "▁little": 2396,
      "▁arg": 2397,
      "▁},": 2398,
      "include": 2399,
      "eta": 2400,
      "▁place": 2401,
      "idth": 2402,
      "ustom": 2403,
      "▁||": 2404,
      "▁tem": 2405,
      "ried": 2406,
      "▁fact": 2407,
      "ience": 2408,
      "▁Pl": 2409,
      "opt": 2410,
      "ele": 2411,
      "go": 2412,
      "AC": 2413,
      "inter": 2414,
      "========": 2415,
      "(),": 2416,
      "ots": 2417,
      "ral": 2418,
      "ique": 2419,
      "aving": 2420,
      "ml": 2421,
      "▁thought": 2422,
      "frac": 2423,
      "▁care": 2424,
      "());": 2425,
      "▁put": 2426,
      "▁might": 2427,
      "▁Amer": 2428,
      "▁(!": 2429,
      "ample": 2430,
      "alth": 2431,
      "▁few": 2432,
      "▁state": 2433,
      "sub": 2434,
      "▁Or": 2435,
      "];": 2436,
      "▁size": 2437,
      "▁Sp": 2438,
      "▁without": 2439,
      "▁poss": 2440,
      "eq": 2441,
      "play": 2442,
[...]
